{"!":0,"\"":1,"#":2,"$":3,"%":4,"&":5,"'":6,"(":7,")":8,"*":9,"+":10,",":11,"-":12,".":13,"/":14,"0":15,"1":16,"2":17,"3":18,"4":19,"5":20,"6":21,"7":22,"8":23,"9":24,":":25,";":26,"<":27,"=":28,">":29,"?":30,"@":31,"A":32,"B":33,"C":34,"D":35,"E":36,"F":37,"G":38,"H":39,"I":40,"J":41,"K":42,"L":43,"M":44,"N":45,"O":46,"P":47,"Q":48,"R":49,"S":50,"T":51,"U":52,"V":53,"W":54,"X":55,"Y":56,"Z":57,"[":58,"\\":59,"]":60,"^":61,"_":62,"`":63,"a":64,"b":65,"c":66,"d":67,"e":68,"f":69,"g":70,"h":71,"i":72,"j":73,"k":74,"l":75,"m":76,"n":77,"o":78,"p":79,"q":80,"r":81,"s":82,"t":83,"u":84,"v":85,"w":86,"x":87,"y":88,"z":89,"{":90,"|":91,"}":92,"~":93,"¡":94,"¢":95,"£":96,"¤":97,"¥":98,"¦":99,"§":100,"¨":101,"©":102,"ª":103,"«":104,"¬":105,"®":106,"¯":107,"°":108,"±":109,"²":110,"³":111,"´":112,"µ":113,"¶":114,"·":115,"¸":116,"¹":117,"º":118,"»":119,"¼":120,"½":121,"¾":122,"¿":123,"À":124,"Á":125,"Â":126,"Ã":127,"Ä":128,"Å":129,"Æ":130,"Ç":131,"È":132,"É":133,"Ê":134,"Ë":135,"Ì":136,"Í":137,"Î":138,"Ï":139,"Ð":140,"Ñ":141,"Ò":142,"Ó":143,"Ô":144,"Õ":145,"Ö":146,"×":147,"Ø":148,"Ù":149,"Ú":150,"Û":151,"Ü":152,"Ý":153,"Þ":154,"ß":155,"à":156,"á":157,"â":158,"ã":159,"ä":160,"å":161,"æ":162,"ç":163,"è":164,"é":165,"ê":166,"ë":167,"ì":168,"í":169,"î":170,"ï":171,"ð":172,"ñ":173,"ò":174,"ó":175,"ô":176,"õ":177,"ö":178,"÷":179,"ø":180,"ù":181,"ú":182,"û":183,"ü":184,"ý":185,"þ":186,"ÿ":187,"Ā":188,"ā":189,"Ă":190,"ă":191,"Ą":192,"ą":193,"Ć":194,"ć":195,"Ĉ":196,"ĉ":197,"Ċ":198,"ċ":199,"Č":200,"č":201,"Ď":202,"ď":203,"Đ":204,"đ":205,"Ē":206,"ē":207,"Ĕ":208,"ĕ":209,"Ė":210,"ė":211,"Ę":212,"ę":213,"Ě":214,"ě":215,"Ĝ":216,"ĝ":217,"Ğ":218,"ğ":219,"Ġ":220,"ġ":221,"Ģ":222,"ģ":223,"Ĥ":224,"ĥ":225,"Ħ":226,"ħ":227,"Ĩ":228,"ĩ":229,"Ī":230,"ī":231,"Ĭ":232,"ĭ":233,"Į":234,"į":235,"İ":236,"ı":237,"Ĳ":238,"ĳ":239,"Ĵ":240,"ĵ":241,"Ķ":242,"ķ":243,"ĸ":244,"Ĺ":245,"ĺ":246,"Ļ":247,"ļ":248,"Ľ":249,"ľ":250,"Ŀ":251,"ŀ":252,"Ł":253,"ł":254,"Ń":255,"Ġt":256,"he":257,"Ġa":258,"in":259,"Ġthe":260,"Ġo":261,"Ġs":262,"re":263,"Ġw":264,"nd":265,"er":266,"on":267,"at":268,"Ġb":269,"is":270,"Ġc":271,"ed":272,"Ġh":273,"it":274,"en":275,"Ġof":276,"Ġf":277,"Ġp":278,"Ġm":279,"Ġand":280,"ou":281,"es":282,"ing":283,"Ġin":284,"Ġd":285,"Ġto":286,"or":287,"ar":288,"an":289,"as":290,"Ġth":291,"Ġl":292,"ĠĊ":293,"ll":294,"Ġn":295,"Ġhe":296,"om":297,"ic":298,"ion":299,"ĠĠ":300,"Ġe":301,"le":302,"Ġg":303,"Ġbe":304,"al":305,"ent":306,"ad":307,"Ġre":308,"ro":309,"st":310,"ut":311,"im":312,"ly":313,"id":314,"Ġwh":315,"ot":316,"se":317,"ve":318,"ce":319,"Ġ\"":320,"ow":321,"Ġon":322,"Ġu":323,"ct":324,"Ġit":325,"Ġthat":326,"Ġwas":327,"ith":328,"Ġwith":329,"ld":330,"ur":331,"Ġhis":332,"ay":333,"Ġas":334,"Ġst":335,"Ġi":336,"ver":337,"Ġis":338,"Ġfor":339,"et":340,"gh":341,"Ġy":342,"ir":343,"Ġan":344,"Ġr":345,"ation":346,"ch":347,"Ġat":348,"ere":349,"Ġnot":350,"Ġcon":351,"Ġha":352,"Ġfr":353,"ter":354,"am":355,"ĠĠĠĠ":356,"ol":357,"Ġhad":358,"Ġyou":359,"Ġor":360,"her":361,"ess":362,"il":363,"ul":364,"all":365,"Ġse":366,"Ġby":367,"res":368,"ain":369,"Ġhim":370,"us":371,"ght":372,"Ġde":373,"Ġsu":374,"Ġv":375,"ri":376,"ich":377,"--":378,"and":379,"Ġsh":380,"Ġk":381,"ac":382,"pp":383,"Ġher":384,"Ġex":385,"Ġfrom":386,"oo":387,"'s":388,"Ġso":389,"ers":390,"os":391,"ill":392,"Ġbut":393,"ould":394,"th":395,"Ġcom":396,"Ġne":397,"em":398,"ag":399,"if":400,"ore":401,"Ġsa":402,"Ġwhich":403,"Ġpr":404,"ov":405,"ect":406,"ous":407,"qu":408,"ap":409,"Ġch":410,"est":411,"Ġall":412,"ant":413,"..":414,"ak":415,"um":416,"ab":417,"Ġwhe":418,"Ġwere":419,"Ġshe":420,"Ġpro":421,"nt":422,"ist":423,"ight":424,".\"":425,"Ġal":426,"ate":427,"ig":428,"Ġar":429,"Ġwho":430,"Ġthis":431,"Ġj":432,"Ġare":433,"Ġthey":434,"Ġsp":435,"ust":436,"Ġro":437,"Ġwe":438,"art":439,"ound":440,"ard":441,"Ġme":442,"out":443,"Ġup":444,"ment":445,"ive":446,"Ġint":447,"one":448,"op":449,"Ġsaid":450,"red":451,"Ġhave":452,",\"":453,"Ġle":454,"Ġab":455,"Ġfe":456,"Ġ1":457,"Ġun":458,"Ġone":459,"ie":460,"ary":461,"ies":462,"Ġdo":463,"very":464,"ress":465,"Ġprin":466,"sel":467,"ff":468,"our":469,"ity":470,"Ġdis":471,"Ġman":472,"Ġthere":473,"ame":474,"iv":475,"Ġam":476,"ong":477,"ome":478,"Ġtheir":479,"ther":480,"ra":481,"Ġwhen":482,"Ġad":483,"per":484,"ked":485,"un":486,"ĠĠĠĠĠĠĠĠ":487,"ure":488,"Ġgo":489,"ace":490,"ally":491,"ort":492,"Ġkn":493,"cc":494,"ood":495,"Ġco":496,"ge":497,"pt":498,"ated":499,"ier":500,"Ġno":501,"Ġbeen":502,"Ġwhat":503,"Ġthem":504,"Ġmay":505,"hed":506,"Ġ_":507,"Ġmy":508,"ions":509,"Ġim":510,"ry":511,"the":512,"nder":513,"oc":514,"Ġout":515,"ast":516,"Ġen":517,"Ġpl":518,"ount":519,"ke":520,"Ġag":521,"Ġfre":522,"act":523,"ib":524,"pl":525,"ind":526,"Ġev":527,"ost":528,"able":529,"su":530,"reat":531,"au":532,"?\"":533,"!\"":534,"Ġwor":535,"ell":536,"Ġqu":537,"Ġif":538,"self":539,"ough":540,"ose":541,"Ġinto":542,"row":543,"cess":544,"ered":545,"el":546,"od":547,"Ġmore":548,"ack":549,"hing":550,"ance":551,"Ġcl":552,"Ġapp":553,"Ġcont":554,"ans":555,"Ġoff":556,"ci":557,"own":558,"av":559,"end":560,"Ġpier":561,"ass":562,"Ġother":563,"itt":564,"Ġtr":565,"Ġwould":566,"Ġloo":567,"ide":568,"Ġpierre":569,"Ġunder":570,"Ġsm":571,"Ġprince":572,"Ġdid":573,"Ġpart":574,"Ġtim":575,"age":576,"ice":577,"Ġany":578,"urn":579,"ite":580,"Ġres":581,"way":582,"Ġaf":583,"Ġonly":584,"Ġcan":585,"Ġcount":586,"Ġsome":587,"ence":588,"ear":589,"Ġem":590,"Ġrep":591,"ub":592,"cl":593,"Ġcomm":594,"Ġli":595,"Ġbl":596,"ish":597,"Ġrem":598,"ase":599,"Ġbr":600,"Ġind":601,"ang":602,"Ġ(":603,"rew":604,"Ġover":605,"Ġcould":606,"Ġwill":607,"ult":608,"ine":609,"are":610,"ought":611,"Ġtw":612,"Ġbec":613,"ep":614,"Ġpe":615,"Ġhand":616,"Ġits":617,"Ġnat":618,"ile":619,"Ġnow":620,"Ġform":621,"ha":622,"Ġafter":623,"ove":624,"ft":625,"Ġhas":626,"fore":627,"Ġper":628,"king":629,"Ġhow":630,"Ġgr":631,"ial":632,"ates":633,"ire":634,"Ġnew":635,"Ġshould":636,"int":637,"ition":638,"ade":639,"Ġtime":640,"ied":641,"ia":642,"Ġinf":643,"ction":644,"Ġagain":645,"Ġgl":646,"Ġfir":647,"Ġevery":648,"Ġfo":649,"Ġtak":650,"Ġarm":651,"Ġcomp":652,"Ġabout":653,"ud":654,"Ġimp":655,"Ġthen":656,"wn":657,"ations":658,"Ġpre":659,"ign":660,"ĠĠĠ":661,"iz":662,"Ġyour":663,"Ġatt":664,"Ġsuch":665,"eral":666,"yes":667,"ph":668,"Ġcons":669,"Ġexp":670,"Ġbefore":671,"Ġfl":672,"oss":673,"Ġthan":674,"Ġbeg":675,"ical":676,"co":677,"Ġpres":678,"ory":679,"Ġknow":680,"uc":681,"ber":682,"ife":683,"'t":684,"anc":685,"nch":686,"Ġsee":687,"Ġvery":688,"Ġwar":689,"Ġgen":690,"ach":691,"ull":692,"Ġlong":693,"orm":694,"Ġday":695,"asha":696,"erv":697,"ious":698,"Ġsc":699,"ens":700,"Ġmar":701,"oint":702,"ise":703,"ue":704,"Ġfrench":705,"Ġdown":706,"ness":707,"uss":708,"ons":709,"Ġstr":710,"Ġold":711,"Ġeven":712,"other":713,"ip":714,"Ġthese":715,"Ġsl":716,"Ġmen":717,"ors":718,"ward":719,"Ġnatasha":720,"Ġthose":721,"ular":722,"Ġsay":723,"Ġsur":724,"iff":725,"ident":726,"eric":727,"Ġfirst":728,"Ġandrew":729,"Ġhimself":730,"we":731,"Ġour":732,"ord":733,"ks":734,"Ġface":735,"omet":736,"Ġlike":737,"tain":738,"Ġ2":739,"ok":740,"iss":741,"lic":742,"ited":743,"Ġacc":744,"Ġupon":745,"Ġtwo":746,"Ġgreat":747,"ried":748,"oy":749,"Ġsomet":750,"ened":751,"ful":752,"llow":753,"Ġreg":754,"wh":755,"Ġsy":756,"Ġrost":757,"ution":758,"ause":759,"ather":760,"Ġthr":761,"air":762,"Ġcar":763,"Ġthought":764,"Ġob":765,"na":766,"ath":767,"Ġus":768,"ject":769,"Ġsame":770,"read":771,"Ġocc":772,"Ġameric":773,"Ġent":774,"ible":775,"Ġmust":776,"ily":777,"Ġstates":778,"erm":779,"ian":780,"ning":781,"te":782,"Ġop":783,"ittle":784,"aw":785,"Ġwent":786,"Ġdes":787,"Ġcol":788,"Ġwithout":789,"Ġmade":790,"vern":791,"Ġbet":792,"Ġroom":793,"Ġ18":794,"Ġlittle":795,"Ġact":796,"att":797,"Ġcame":798,"Ġpass":799,"amp":800,"Ġord":801,"Ġsub":802,"Ġaff":803,"Ġspe":804,"ne":805,"so":806,"ree":807,"Ġrostov":808,"Ġseem":809,"Ġ3":810,"Ġwhere":811,"Ġoffic":812,"ole":813,"ings":814,"Ġac":815,"...":816,"Ġturn":817,"Ġmet":818,"ty":819,"Ġpeop":820,"Ġ4":821,"Ġeyes":822,"ng":823,"Ġgeneral":824,"Ġprincess":825,"ail":826,"Ġown":827,"Ġway":828,"lt":829,"ave":830,"ower":831,"Ġbeing":832,"Ġstill":833,"ving":834,"Ġmost":835,"Ġthin":836,"ared":837,"Ġgovern":838,"Ġlet":839,"Ġsk":840,"Ġhead":841,"ents":842,"Ġjust":843,"ru":844,"Ġpeople":845,"rib":846,"Ġright":847,"Ġthrough":848,"Ġ=":849,"led":850,"Ġdist":851,"issu":852,"ears":853,"Ġlife":854,"ya":855,"Ġpol":856,"Ġcome":857,"ished":858,"ĠĠĠĠĠĠĠĠĠĠĠĠĠĠĠĠ":859,"pe":860,"Ġinter":861,"Ġinc":862,"Ġtissu":863,"ised":864,"thing":865,"Ġaway":866,"Ġmary":867,"Ġconf":868,"Ġsupp":869,"hes":870,"ick":871,"Ġanother":872,"Ġleft":873,"Ġrel":874,"Ġret":875,"ures":876,"og":877,"Ġdiff":878,"atter":879,"Ġend":880,"Ġhapp":881,"Ġext":882,"Ġgood":883,"Ġass":884,"les":885,"Ġback":886,"ouse":887,"Ġcond":888,"Ġwell":889,"Ġbegan":890,"ted":891,"Ġmak":892,"Ġruss":893,"Ġchar":894,"ild":895,"den":896,"=--":897,"ected":898,"ration":899,"Ġson":900,".=--":901,"Ġasked":902,"Ġalso":903,"cer":904,"Ġdise":905,"Ġresult":906,"Ġconst":907,"00":908,"Ġword":909,"Ġarmy":910,"igh":911,"ved":912,"Ġcap":913,"osc":914,"uch":915,"Ġlooked":916,"Ġeng":917,"ways":918,"ating":919,"Ġfound":920,"ond":921,"Ġstre":922,"Ġwhile":923,"Ġwhole":924,"Ġcour":925,"ection":926,"Ġfollow":927,"ater":928,"Ġshall":929,"Ġcor":930,"Ġcall":931,"Ġhouse":932,"Ġ'":933,"Ġmosc":934,"rit":935,"ases":936,"ys":937,"Ġkne":938,"Ġread":939,"Ġunderst":940,"Ġref":941,"Ġadd":942,"Ġmoscow":943,"ute":944,"ont":945,"ient":946,"enc":947,"Ġwom":948,"Ġpet":949,"ict":950,"oth":951,"Ġrec":952,"Ġcle":953,"ublic":954,"Ġwound":955,"Ġdef":956,"Ġinv":957,"cul":958,"Ġusu":959,"Ġfelt":960,"Ġser":961,"ix":962,"ros":963,"ief":964,"Ġseemed":965,"Ġpat":966,"man":967,"cept":968,"Ġstate":969,"Ġgovernment":970,"Ġyoung":971,"Ġadv":972,"Ġpers":973,"ific":974,"old":975,"Ġlaw":976,"Ġamerican":977,"Ġsold":978,"Ġsomething":979,"land":980,"Ġhist":981,"Ġplace":982,"Ġemper":983,"Ġset":984,"Ġabs":985,"gress":986,"osed":987,"Ġfar":988,"Ġmuch":989,"Ġte":990,"Ġcontin":991,"Ġeff":992,"ined":993,"Ġvo":994,"ev":995,"Ġhaving":996,"Ġtal":997,"Ġnap":998,"Ġnor":999,"ween":1000,"Ġagainst":1001,"Ġbro":1002,"Ġhere":1003,"Ġinst":1004,"uring":1005,"well":1006,"Ġes":1007,"Ġlar":1008,"Ġ5":1009,"osition":1010,"Ġbetween":1011,"olas":1012,"Ġemperor":1013,"Ġgiv":1014,"Ġheard":1015,"icholas":1016,"Ġpower":1017,"Ġlast":1018,"Ġele":1019,"Ġfeel":1020,"Ġfore":1021,"oleon":1022,"uz":1023,"Ġgrow":1024,"ner":1025,"Ġsat":1026,"Ġbone":1027,"ants":1028,"Ġma":1029,"Ġexpress":1030,"ention":1031,"Ġthough":1032,"Ġnapoleon":1033,"Ġdisease":1034,"Ġnever":1035,"Ġcommand":1036,"less":1037,"Ġple":1038,"Ġposs":1039,"Ġnicholas":1040,"Ġrest":1041,"Ġbatt":1042,"Ġdon":1043,"ently":1044,"Ġear":1045,"dden":1046,"Ġhor":1047,"Ġnothing":1048,"vers":1049,"Ġdep":1050,"Ġsaw":1051,"Ġdr":1052,"Ġden":1053,"ank":1054,"ained":1055,"Ġmany":1056,"Ġround":1057,"ock":1058,"Ġbel":1059,"Ġalways":1060,"Ġbecause":1061,"Ġtake":1062,"Ġsil":1063,"Ġblood":1064,"iness":1065,"ling":1066,"Ġleg":1067,"oved":1068,"oma":1069,"Ġel":1070,"Ġskin":1071,"Ġconsid":1072,"Ġquest":1073,"Ġoccur":1074,"Ġfather":1075,"Ġmom":1076,"Ġmus":1077,"ands":1078,"Ġhands":1079,"Ġsmall":1080,"ps":1081,"ten":1082,"Ġtook":1083,"ark":1084,"Ġget":1085,"Ġyears":1086,"Ġsudden":1087,"Ġke":1088,"Ġbor":1089,"Ġmight":1090,"men":1091,"Ġpur":1092,"Ġonce":1093,").":1094,"ody":1095,"Ġtell":1096,"Ġmove":1097,"Ġdem":1098,"und":1099,"Ġdire":1100,"Ġthink":1101,"ative":1102,"li":1103,"ves":1104,"ters":1105,"Ġunited":1106,"you":1107,"Ġwant":1108,"ilit":1109,"Ġfrie":1110,"Ġthree":1111,"Ġserv":1112,"Ġsim":1113,"ange":1114,"Ġtissue":1115,"Ġsou":1116,"...\"":1117,"Ġpain":1118,"Ġlook":1119,"Ġtoo":1120,"._":1121,"up":1122,"Ġmin":1123,"Ġfriend":1124,"Ġca":1125,"osis":1126,"Ġph":1127,"Ġsuff":1128,"Ġlead":1129,"ki":1130,"ple":1131,"Ġgu":1132,"Ġvar":1133,"Ġkut":1134,"Ġhel":1135,"uzov":1136,"Ġins":1137,"ided":1138,"Ġcontinu":1139,"ts":1140,"Ġside":1141,"ane":1142,"iet":1143,"Ġmor":1144,"Ġfree":1145,"Ġcolon":1146,"Ġter":1147,"Ġkutuzov":1148,"Ġmem":1149,"Ġir":1150,"ility":1151,"Ġdra":1152,"ross":1153,"acter":1154,"Ġput":1155,"ting":1156,"ins":1157,"Ġdoor":1158,"Ġusually":1159,"Ġmoment":1160,"ton":1161,"Ġtreat":1162,"ertain":1163,"ged":1164,"Ġboth":1165,"vel":1166,"Ġshow":1167,"_,":1168,"pped":1169,"ived":1170,"but":1171,"oub":1172,"Ġconstit":1173,"Ġwr":1174,"Ġpar":1175,"ither":1176,"Ġfin":1177,"what":1178,"ual":1179,"Ġlarge":1180,"Ġlim":1181,"sw":1182,"Ġsin":1183,"here":1184,"Ġred":1185,"Ġjoint":1186,"Ġlove":1187,"Ġgive":1188,"Ġconv":1189,"Ġmake":1190,"Ġmon":1191,"Ġchild":1192,"Ġturned":1193,"Ġmatter":1194,"augh":1195,"Ġfact":1196,"cond":1197,"ments":1198,"Ġduring":1199,"mes":1200,"its":1201,"ever":1202,"ren":1203,"ism":1204,"Ġrev":1205,"Ġansw":1206,"ired":1207,"oh":1208,"Ġhol":1209,"Ġpress":1210,"erest":1211,"Ġknew":1212,"Ġsuddenly":1213,"iers":1214,"Ġchap":1215,"ready":1216,"Ġunderstand":1217,"Ġcountess":1218,"rem":1219,"Ġtold":1220,"ening":1221,"Ġalready":1222,"ili":1223,"Ġnear":1224,"Ġreturn":1225,"Ġnation":1226,"ists":1227,"Ġchief":1228,"sh":1229,"ene":1230,"Ġadm":1231,"Ġpresent":1232,"Ġche":1233,"Ġcertain":1234,"Ġbattle":1235,"ement":1236,"Ġcr":1237,"Ġwhom":1238,"Ġspeak":1239,"Ġwhy":1240,"Ġevident":1241,"Ġbo":1242,"Ġyet":1243,"Ġfew":1244,"Ġquite":1245,"son":1246,"Ġve":1247,"Ġdi":1248,"hov":1249,"Ġorder":1250,"get":1251,"pr":1252,"Ġcase":1253,"ield":1254,"Ġinterest":1255,"cle":1256,"ying":1257,"Ġpoint":1258,"ized":1259,"oun":1260,"ased":1261,"Ġbeh":1262,"olution":1263,"Ġdec":1264,"oke":1265,"ully":1266,"not":1267,"Ġrece":1268,"Ġchapter":1269,"Ġofficer":1270,"Ġfront":1271,"....":1272,"Ġvoice":1273,"ched":1274,"imes":1275,"aces":1276,"ended":1277,"Ġholmes":1278,"ured":1279,"Ġwords":1280,"no":1281,"Ġtro":1282,"Ġcountry":1283,"Ġrussian":1284,"Ġcongress":1285,"ced":1286,"Ġoften":1287,"Ġnecess":1288,"Ġsoon":1289,"cially":1290,"Ġcases":1291,"cted":1292,"Ġprov":1293,"Ġwork":1294,"Ġdays":1295,"ces":1296,"Ġdet":1297,"Ġimport":1298,"Ġamong":1299,"gn":1300,"Ġsecond":1301,"Ġart":1302,"Ġlooking":1303,"atic":1304,"cial":1305,"Ġopp":1306,"Ġrepl":1307,"Ġest":1308,"Ġreco":1309,"Ġseen":1310,"used":1311,"erve":1312,"Ġnum":1313,"Ġsign":1314,"de":1315,"Ġcir":1316,"Ġeverything":1317,"Ġlab":1318,"Ġgave":1319,"aring":1320,"Ġshout":1321,"Ġtaken":1322,"Ġx":1323,"ason":1324,"ering":1325,"ense":1326,"aced":1327,"Ġsent":1328,"Ġbus":1329,"isov":1330,"Ġhigh":1331,"Ġdress":1332,"ug":1333,"Ġhard":1334,"Ġposition":1335,"ck":1336,"Ġtum":1337,"Ġless":1338,"ook":1339,"ately":1340,"Ġ19":1341,"ait":1342,"Ġsw":1343,"Ġdone":1344,"Ġran":1345,"erent":1346,"ities":1347,"Ġpa":1348,"Ġdest":1349,"ars":1350,"Ġimm":1351,"'ll":1352,"Ġdear":1353,"Ġsmile":1354,"Ġsonya":1355,"Ġtub":1356,"ital":1357,"itis":1358,"Ġsever":1359,"Ġappro":1360,"Ġcrow":1361,"ached":1362,"Ġprod":1363,"Ġhowever":1364,"Ġcent":1365,"Ġthir":1366,"ians":1367,"icular":1368,"ned":1369,"Ġsometimes":1370,"Ġpolit":1371,"iment":1372,"Ġdenisov":1373,"Ġtend":1374,"Ġlist":1375,"Ġcalled":1376,"Ġra":1377,"pect":1378,"use":1379,"Ġtoward":1380,"Ġbon":1381,"uth":1382,"ides":1383,"Ġcur":1384,"that":1385,"Ġsoldiers":1386,"Ġothers":1387,"Ġeach":1388,"Ġbecome":1389,"Ġfam":1390,"Ġcommon":1391,"ision":1392,"tern":1393,"Ġsec":1394,"ages":1395,"Ġalong":1396,"Ġtrans":1397,"Ġquestion":1398,"Ġbrought":1399,"Ġoper":1400,"ison":1401,"Ġves":1402,"Ġinfl":1403,"br":1404,"pecially":1405,"Ġbehind":1406,"Ġprom":1407,"Ġtumour":1408,"Ġprop":1409,"Ġrap":1410,"Ġprev":1411,"ii":1412,"Ġlad":1413,"itions":1414,"Ġlight":1415,"Ġul":1416,"Ġorg":1417,"----":1418,"ble":1419,"xt":1420,"Ġhal":1421,"Ġlay":1422,"Ġhum":1423,"Ġbur":1424,"Ġnight":1425,"Ġexpl":1426,"selves":1427,"uct":1428,"Ġuse":1429,"Ġcourse":1430,"Ġworld":1431,"Ġperi":1432,"Ġpatient":1433,"Ġmer":1434,"icult":1435,"Ġstand":1436,"Ġang":1437,"ably":1438,"Ġpresident":1439,"Ġvessel":1440,"Ġdoes":1441,"Ġconstitution":1442,"Ġmr":1443,"Ġstood":1444,"ops":1445,"most":1446,"Ġdol":1447,"ushed":1448,"Ġ17":1449,"Ġespecially":1450,"Ġ|":1451,"Ġfind":1452,"ances":1453,"._--":1454,"itting":1455,"Ġclear":1456,"bur":1457,"Ġunt":1458,"iew":1459,"Ġknown":1460,"Ġanything":1461,"Ġhorse":1462,"Ġcal":1463,"lex":1464,"Ġwomen":1465,"ets":1466,"fully":1467,"Ġcause":1468,"rying":1469,"Ġed":1470,"Ġdisc":1471,"to":1472,"yl":1473,"par":1474,"Ġsle":1475,"Ġrepublic":1476,"Ġseveral":1477,"unt":1478,"Ġvis":1479,"Ġhistory":1480,"Ġ[":1481,"Ġfour":1482,"Ġpo":1483,"Ġ#":1484,"Ġperson":1485,"Ġevidently":1486,"Ġwife":1487,"Ġmind":1488,"Ġste":1489,"Ġstep":1490,"Ġpassed":1491,"Ġgoing":1492,"uck":1493,"az":1494,"Ġbes":1495,"Ġpap":1496,"Ġneed":1497,"ven":1498,"Ġbri":1499,"Ġcamp":1500,"Ġland":1501,"Ġkind":1502,"ize":1503,"Ġgiven":1504,"Ġmiss":1505,"Ġadj":1506,"Ġru":1507,"Ġcompan":1508,"Ġincre":1509,"Ġsmil":1510,"Ġinfection":1511,"Ġfeeling":1512,"ym":1513,"eration":1514,"Ġcoll":1515,"ovna":1516,"aps":1517,"ax":1518,"Ġloc":1519,"Ġcondition":1520,"Ġtuber":1521,"Ġaction":1522,"Ġbre":1523,"Ġthous":1524,"Ġsym":1525,"fact":1526,"Ġexc":1527,"Ġprot":1528,"Ġsound":1529,"ury":1530,"Ġconn":1531,"Ġdel":1532,"Ġsurf":1533,"Ġfed":1534,"Ġgod":1535,"ec":1536,"for":1537,"Ġaw":1538,"hen":1539,"Ġdiv":1540,"anced":1541,"lish":1542,"Ġterm":1543,"Ġfig":1544,"als":1545,"vere":1546,"Ġfoot":1547,"Ġten":1548,"Ġtra":1549,"Ġmovement":1550,"Ġmass":1551,"oney":1552,"alth":1553,"Ġill":1554,"Ġproject":1555,"Ġbrit":1556,"airs":1557,"Ġdifferent":1558,"ature":1559,"Ġport":1560,"Ġgerm":1561,"ching":1562,"Ġwhether":1563,"Ġsouth":1564,"Ġinj":1565,"Ġlabor":1566,"Ġherself":1567,"Ġrapid":1568,"Ġwind":1569,"Ġlater":1570,"illed":1571,"Ġcharacter":1572,"Ġpossible":1573,"ret":1574,"Ġbody":1575,"Ġchang":1576,"Ġappear":1577,"Ġrepe":1578,"Ġwhite":1579,"Ġmorning":1580,"ron":1581,"Ġpop":1582,"Ġsing":1583,"Ġvas":1584,"Ġalone":1585,"ocr":1586,"okhov":1587,"uro":1588,"Ġvir":1589,"Ġenem":1590,"Ġcrowd":1591,"Ġorgan":1592,"edi":1593,"ency":1594,"Ġwoman":1595,"eren":1596,"Ġopen":1597,"Ġrun":1598,"Ġdeath":1599,"Ġmaj":1600,"Ġdev":1601,"form":1602,"Ġfollowed":1603,"Ġdolokhov":1604,"_.":1605,"Ġbal":1606,"amm":1607,"Ġbecom":1608,"Ġmother":1609,"uced":1610,"Ġexpression":1611,"Ġdraw":1612,"Ġmoney":1613,"Ġdirect":1614,"Ġtreatment":1615,"Ġnecessary":1616,"Ġhalf":1617,"oud":1618,"ustri":1619,"Ġuntil":1620,"crib":1621,"Ġmain":1622,"Ġnerve":1623,"Ġheart":1624,"peri":1625,"ices":1626,"Ġhour":1627,"Ġmad":1628,"Ġheav":1629,"aged":1630,"Ġwest":1631,"Ġalmost":1632,"Ġtroops":1633,"Ġreplied":1634,"oid":1635,"Ġthings":1636,"Ġconsider":1637,"Ġbusiness":1638,"),":1639,"inal":1640,"Ġbu":1641,"Ġbed":1642,"app":1643,"Ġpublic":1644,"Ġlym":1645,"Ġeas":1646,"enty":1647,"Ġdisp":1648,"Ġofficers":1649,"Ġlymph":1650,"Ġfib":1651,"ective":1652,"Ġmeet":1653,"Ġnational":1654,"Ġep":1655,"Ġbecame":1656,"ery":1657,"Ġdoub":1658,"Ġlin":1659,"ains":1660,"Ġclose":1661,"Ġarter":1662,"ising":1663,"ulation":1664,"Ġroad":1665,"ploy":1666,"Ġhelp":1667,"Ġdecl":1668,"Ġdeep":1669,"clud":1670,"Ġengland":1671,"Ġfav":1672,"Ġpp":1673,"Ġwithin":1674,"Ġmeas":1675,"Ġtem":1676,"Ġhold":1677,"Ġdoct":1678,"Ġtre":1679,"Ġhome":1680,"Ġequ":1681,"Ġyes":1682,"Ġdifficult":1683,"Ġcommander":1684,"Ġfrequ":1685,"Ġremem":1686,"Ġrecogn":1687,"Ġspread":1688,"Ġ6":1689,"ination":1690,"Ġmid":1691,"Ġmilit":1692,"Ġthing":1693,"Ġthemselves":1694,"Ġobs":1695,"Ġsett":1696,"ister":1697,"Ġnumber":1698,"arm":1699,"Ġdri":1700,"Ġhon":1701,"ung":1702,"Ġsince":1703,"Ġname":1704,"Ġabove":1705,"Ġtaking":1706,"Ġadded":1707,"aim":1708,"uten":1709,"ush":1710,"acy":1711,"Ġparty":1712,"ample":1713,"Ġhistor":1714,"Ġcare":1715,"Ġcold":1716,"Ġparts":1717,"Ġemploy":1718,"Ġcart":1719,"amed":1720,"Ġplan":1721,"Ġsubject":1722,"Ġdro":1723,"Ġla":1724,"Ġquick":1725,"anger":1726,"Ġtissues":1727,"round":1728,"Ġtable":1729,"Ġsen":1730,"Ġsoft":1731,"Ġtalk":1732,"burg":1733,"Ġenemy":1734,"Ġhop":1735,"Ġfield":1736,"Ġanna":1737,"Ġleave":1738,"oci":1739,"Ġamerica":1740,"Ġwat":1741,"ics":1742,"Ġinvol":1743,"Ġcontinued":1744,"riv":1745,"Ġtubercul":1746,"hod":1747,"lf":1748,"Ġeither":1749,"ives":1750,"Ġletter":1751,"Ġboris":1752,"Ġlimb":1753,"Ġheld":1754,"Ġyear":1755,"ards":1756,"Ġbelie":1757,"Ġhund":1758,"Ġever":1759,"sem":1760,"Ġsto":1761,"Ġexample":1762,"ustration":1763,"Ġappe":1764,"Ġball":1765,"Ġfull":1766,"aster":1767,"Ġfall":1768,"Ġreason":1769,"Ġcontr":1770,"Ġnews":1771,"Ġpleas":1772,"lovna":1773,"Ġcried":1774,"ural":1775,"Ġhundred":1776,"ik":1777,"Ġfire":1778,"Ġmean":1779,"Ġfellow":1780,"Ġcarried":1781,"Ġgot":1782,"Ġnorth":1783,"Ġimportant":1784,"Ġwait":1785,"Ġunion":1786,"Ġreceived":1787,"atures":1788,"Ġbest":1789,"ork":1790,"Ġregiment":1791,"Ġsyph":1792,"velop":1793,"Ġsurface":1794,"Ġgent":1795,"Ġreal":1796,"berg":1797,"000":1798,"Ġwall":1799,"illustration":1800,"empt":1801,"Ġcannot":1802,"Ġentered":1803,"Ġeffect":1804,"Ġdemocr":1805,"ka":1806,"Ġcut":1807,"Ġhur":1808,"Ġhors":1809,"Ġles":1810,"Ġused":1811,"ex":1812,"Ġsit":1813,"Ġwal":1814,"Ġglands":1815,"Ġcomple":1816,"Ġsyst":1817,"aughter":1818,"Ġanat":1819,"Ġview":1820,"Ġparticular":1821,"Ġcell":1822,"Ġfing":1823,"Ġitself":1824,"Ġshort":1825,"Ġnext":1826,"Ġprocess":1827,"Ġtown":1828,"Ġgir":1829,"Ġaround":1830,"Ġsaying":1831,"Ġsitting":1832,"Ġprep":1833,"Ġstrong":1834,"Ġciv":1835,"Ġsystem":1836,"bers":1837,"day":1838,"Ġtwenty":1839,"where":1840,"Ġmere":1841,"Ġorig":1842,"Ġassoci":1843,"con":1844,"Ġsn":1845,"ats":1846,"Ġbar":1847,"Ġprof":1848,"Ġgrowth":1849,"Ġav":1850,"olk":1851,"Ġpeace":1852,"iously":1853,"Ġsurround":1854,"Ġpetya":1855,"Ġspir":1856,"Ġevening":1857,"Ġbetter":1858,"Ġgerman":1859,"utenberg":1860,"#--":1861,"Ġthousand":1862,"Ġbritish":1863,"ah":1864,"Ġhair":1865,"Ġimposs":1866,"erence":1867,"Ġhorses":1868,".#--":1869,"Ġtoget":1870,"Ġge":1871,"Ġsucc":1872,"itted":1873,"cles":1874,"Ġpeters":1875,"Ġtogether":1876,"eur":1877,"ob":1878,"uce":1879,"Ġdark":1880,"Ġburn":1881,"ission":1882,"Ġrevolution":1883,"usion":1884,"Ġbones":1885,"dle":1886,"ority":1887,"Ġopin":1888,"Ġearly":1889,"com":1890,"Ġauth":1891,"Ġsix":1892,"Ġgre":1893,"Ġexce":1894,"ake":1895,"Ġplay":1896,"Ġpolitical":1897,"urope":1898,"bed":1899,"ches":1900,"Ġexcept":1901,"Ġbegin":1902,"Ġshouted":1903,"Ġreally":1904,"Ġking":1905,"Ġforms":1906,"ysm":1907,"Ġask":1908,"Ġformer":1909,"Ġhy":1910,"Ġdut":1911,"ĠĠĠĠĠĠ":1912,"Ġrepres":1913,"epend":1914,"Ġbrother":1915,"Ġperiod":1916,"Ġfederal":1917,"fort":1918,"isl":1919,"Ġcross":1920,"Ġpast":1921,"Ġgra":1922,"owed":1923,"Ġforce":1924,"uses":1925,"Ġval":1926,"Ġkept":1927,"gr":1928,"Ġpost":1929,"Ġdue":1930,"omy":1931,"Ġeurope":1932,"resh":1933,"Ġvot":1934,"Ġvessels":1935,"Ġnotic":1936,"Ġmeans":1937,"Ġgentle":1938,"Ġcivil":1939,"orr":1940,"Ġfarm":1941,"Ġimpossible":1942,"Ġmill":1943,"Ġdom":1944,"Ġline":1945,"Ġvi":1946,"riage":1947,"agn":1948,"Ġrose":1949,"cious":1950,"Ġarms":1951,"Ġpetersburg":1952,"Ġut":1953,"Ġmoved":1954,"Ġforward":1955,"Ġsum":1956,"Ġvill":1957,"Ġindepend":1958,"Ġattack":1959,"Ġelect":1960,".'":1961,"Ġbecomes":1962,"Ġgutenberg":1963,"Ġstart":1964,"Ġblack":1965,"Ġrepresent":1966,"lied":1967,"Ġwish":1968,"ude":1969,"Ġstrange":1970,"Ġoccup":1971,"Ġdrawing":1972,"Ġide":1973,"Ġsuccess":1974,"Ġfirm":1975,"Ġregard":1976,"Ġlegisl":1977,"Ġlocal":1978,"Ġje":1979,"Ġvasili":1980,"of":1981,"rang":1982,"ety":1983,"Ġsepar":1984,"ored":1985,"ressed":1986,"Ġaccount":1987,"ges":1988,"antly":1989,"Ġulcer":1990,"Ġvisit":1991,"Ġwindow":1992,"Ġgirl":1993,"Ġdin":1994,"Ġaccord":1995,"Ġconditions":1996,"Ġabscess":1997,"aneous":1998,"ipp":1999,"Ġpen":2000,"Ġdevelop":2001,"oving":2002,"Ġcomplete":2003,"gg":2004,"rom":2005,"Ġfive":2006,"Ġgone":2007,"Ġann":2008,"aph":2009,"Ġtimes":2010,"Ġimmedi":2011,"ric":2012,"ishing":2013,"Ġrise":2014,"rown":2015,"Ġthird":2016,"ring":2017,"ino":2018,"Ġ16":2019,"Ġlonger":2020,"Ġlaws":2021,"Ġrepeated":2022,"gen":2023,"how":2024,"mit":2025,"Ġtri":2026,"Ġpay":2027,"Ġeffort":2028,"Ġsqu":2029,"Ġbag":2030,"Ġrail":2031,"Ġmethod":2032,"ification":2033,"ually":2034,"Ġrequ":2035,"Ġremained":2036,"Ġeveryone":2037,"Ġenglish":2038,"Ġfur":2039,"omp":2040,"aining":2041,"Ġstreng":2042,"ixed":2043,"Ġchildren":2044,"por":2045,"Ġsac":2046,"Ġconvers":2047,"Ġmyself":2048,"Ġer":2049,"ots":2050,"Ġself":2051,"Ġslight":2052,"Ġresults":2053,"Ġready":2054,"Ġanswered":2055,"Ġestab":2056,"yond":2057,"asion":2058,"Ġexperi":2059,"aking":2060,"Ġrode":2061,"Ġformed":2062,"Ġwounded":2063,"Ġservice":2064,"aff":2065,"go":2066,"Ġtried":2067,"Ġsal":2068,"Ġcav":2069,"ash":2070,"Ġbeyond":2071,"Ġaneur":2072,"Ġjoy":2073,"Ġimag":2074,"Ġmilitary":2075,"Ġaneurysm":2076,"inary":2077,"Ġlost":2078,"Ġgall":2079,"Ġanyone":2080,"Ġremar":2081,"Ġdescrib":2082,"Ġelse":2083,"Ġz":2084,"Ġtill":2085,"rible":2086,"Ġunderstood":2087,"Ġdestro":2088,"uration":2089,"Ġstud":2090,"Ġrid":2091,"Ġpract":2092,"Ġwee":2093,"Ġorders":2094,"Ġair":2095,"Ġgang":2096,"Ġreached":2097,"Ġdeb":2098,"Ġdisapp":2099,"iving":2100,"Ġacross":2101,"Ġhuman":2102,"Ġanatole":2103,"cap":2104,"ger":2105,"Ġrather":2106,"Ġhappy":2107,"Ġpressure":2108,"Ġbeside":2109,"Ġobserv":2110,"Ġopinion":2111,"Ġwater":2112,"Ġhus":2113,"oms":2114,"utes":2115,"otion":2116,"Ġacqu":2117,"Ġsoldier":2118,"semb":2119,"aign":2120,"Ġbad":2121,"Ġdanger":2122,"Ġspoke":2123,"ract":2124,"Ġpresence":2125,"Ġopened":2126,"Ġcampaign":2127,"Ġfrequently":2128,"ikh":2129,"Ġster":2130,"Ġvict":2131,"Ġassum":2132,"Ġpow":2133,"ouri":2134,"ically":2135,"Ġrespect":2136,"Ġaffairs":2137,"Ġcourt":2138,"Ġver":2139,"ink":2140,"Ġfif":2141,"Ġfort":2142,"Ġsuper":2143,"Ġvol":2144,"ivid":2145,"Ġwanted":2146,"Ġprevent":2147,"aut":2148,"Ġalex":2149,"Ġhaem":2150,"Ġcoming":2151,"Ġproper":2152,"Ġcontro":2153,"Ġindic":2154,"Ġgrou":2155,"Ġground":2156,"orrh":2157,"avery":2158,"body":2159,"Ġ9":2160,"Ġlower":2161,"Ġnerv":2162,"lying":2163,"Ġissu":2164,"Ġkiss":2165,"Ġexam":2166,"Ġtrade":2167,"Ġscar":2168,"rupt":2169,"Ġhusb":2170,"ns":2171,"Ġty":2172,"Ġmed":2173,"Ġformation":2174,"Ġraised":2175,"Ġfamily":2176,"Ġoperation":2177,"Ġstopped":2178,"haps":2179,"Ġwished":2180,"orrow":2181,"Ġthus":2182,"Ġled":2183,"Ġant":2184,"hern":2185,"ĠĠĠĠĠĠĠĠĠ":2186,"Ġpeas":2187,"rest":2188,"erg":2189,"Ġhill":2190,"Ġturning":2191,"Ġhappened":2192,"ina":2193,"ths":2194,"ibility":2195,"Ġmaking":2196,"Ġforeign":2197,"Ġcolonies":2198,"Ġstanding":2199,"Ġhonor":2200,"Ġspirit":2201,"uted":2202,"Ġstri":2203,"Ġbring":2204,"Ġfollowing":2205,"Ġanswer":2206,"Ġtuberculous":2207,"cum":2208,"van":2209,"Ġwhis":2210,"Ġyork":2211,"Ġneck":2212,"there":2213,"Ġapplied":2214,"Ġsurpr":2215,"Ġaffect":2216,"Ġextrem":2217,"Ġkeep":2218,"Ġquiet":2219,"Ġemb":2220,"ruction":2221,"Ġgeor":2222,"Ġ7":2223,"Ġtou":2224,"aint":2225,"ified":2226,"Ġprison":2227,"Ġ10":2228,"Ġfreed":2229,"Ġaffected":2230,"Ġadjut":2231,"olkons":2232,".--":2233,"by":2234,"Ġsens":2235,"ories":2236,"idge":2237,"Ġanim":2238,"Ġsevere":2239,"Ġquar":2240,"Ġtrue":2241,"Ġreport":2242,"Ġtalking":2243,"Ġtax":2244,"Ġmod":2245,"Ġinqu":2246,"Ġneg":2247,"Ġable":2248,"Ġseeing":2249,"Ġdesp":2250,"Ġpolic":2251,"gin":2252,"Ġswell":2253,"Ġcompl":2254,"Ġevents":2255,"ancing":2256,"Ġslow":2257,"Ġmuscles":2258,"ken":2259,"tered":2260,"Ġ*":2261,"Ġsout":2262,"Ġho":2263,"Ġgun":2264,"olute":2265,"Ġtender":2266,"Ġhusband":2267,"yed":2268,"Ġoh":2269,"Ġboy":2270,"Ġmist":2271,"Ġlow":2272,"Ġgaz":2273,"this":2274,"why":2275,"Ġwon":2276,"Ġbene":2277,"Ġprob":2278,"Ġrapidly":2279,"Ġfail":2280,"Ġlo":2281,"let":2282,"Ġappeared":2283,"Ġassociated":2284,"ead":2285,"Ġmo":2286,"arch":2287,"Ġrad":2288,"iform":2289,"Ġinflu":2290,"Ġsad":2291,"Ġdim":2292,"Ġlaugh":2293,"Ġdead":2294,"Ġjud":2295,"Ġreturned":2296,"inite":2297,"Ġcy":2298,"ingly":2299,"aling":2300,"Ġleast":2301,"Ġenter":2302,"Ġterrible":2303,"12":2304,"Ġtar":2305,"Ġhuss":2306,"itude":2307,"room":2308,"ays":2309,"ump":2310,"Ġjo":2311,"Ġleaders":2312,"Ġsympt":2313,"Ġmiddle":2314,"Ġpav":2315,"arc":2316,"ested":2317,"Ġfeatures":2318,"Ġresp":2319,"ronic":2320,"Ġnoticed":2321,"Ġsouthern":2322,"bit":2323,"ams":2324,"ilis":2325,"Ġweak":2326,"olkonski":2327,"Ġap":2328,"erred":2329,"arp":2330,"Ġeight":2331,"rod":2332,"Ġsoci":2333,"isted":2334,"Ġpurp":2335,"Ġmerely":2336,"ium":2337,"Ġpus":2338,"Ġrare":2339,"though":2340,"ively":2341,"Ġattention":2342,"Ġsilent":2343,"Ġsteps":2344,"Ġexcell":2345,"outh":2346,"Ġtor":2347,"ott":2348,"Ġexcl":2349,"arent":2350,"Ġrussia":2351,"Ġcompany":2352,"ye":2353,"Ġce":2354,"Ġinn":2355,"idence":2356,"Ġwashing":2357,"Ġrub":2358,"Ġprinci":2359,"Ġgiving":2360,"Ġdoubt":2361,"Ġlaid":2362,"my":2363,"rene":2364,"Ġmil":2365,"Ġhear":2366,"Ġtherefore":2367,"Ġcommer":2368,"Ġsoul":2369,"Ġsize":2370,"ctions":2371,"aving":2372,"Ġslavery":2373,"der":2374,"Ġ8":2375,"ander":2376,"ests":2377,"Ġfear":2378,"Ġdoctor":2379,"Ġdinner":2380,"Ġstrength":2381,"ois":2382,"ining":2383,"Ġfa":2384,"Ġforg":2385,"Ġfright":2386,"Ġplaced":2387,"Ġspeaking":2388,"Ġquickly":2389,"Ġsitu":2390,"Ġconversation":2391,",'":2392,"Ġtrying":2393,"arily":2394,"enth":2395,"osing":2396,"Ġprim":2397,"like":2398,"Ġmembr":2399,"Ġcre":2400,"Ġcity":2401,"Ġdaughter":2402,"see":2403,"Ġstreet":2404,"Ġfresh":2405,"Ġmal":2406,"Ġund":2407,"Ġstra":2408,"Ġsole":2409,"umb":2410,"Ġfeet":2411,"Ġ186":2412,"Ġsatis":2413,"Ġvariet":2414,"Ġtumours":2415,"io":2416,"Ġhar":2417,"Ġconcer":2418,"ament":2419,"Ġfell":2420,"raid":2421,"Ġcancer":2422,"Ġremoved":2423,"Ġperhaps":2424,"ips":2425,"Ġusual":2426,"Ġimmediately":2427,"uk":2428,"Ġinclud":2429,"Ġwhose":2430,"Ġinterf":2431,"Ġmeasures":2432,"Ġbelieve":2433,"Ġthick":2434,"Ġbeaut":2435,"Ġforces":2436,"Ġenl":2437,"Ġglanced":2438,"wards":2439,"Ġescap":2440,"Ġgallop":2441,"18":2442,"iver":2443,"pat":2444,"ral":2445,"Ġsol":2446,"Ġfine":2447,"olog":2448,"Ġ15":2449,"Ġcolonial":2450,"Ġlady":2451,"Ġpaper":2452,"Ġremember":2453,"head":2454,"Ġcop":2455,"Ġhig":2456,"itation":2457,"Ġhealth":2458,"uls":2459,"Ġsun":2460,"Ġprogress":2461,"Ġdoing":2462,"Ġaccept":2463,"Ġterrit":2464,"Ġnearly":2465,"Ġadmin":2466,"Ġbright":2467,"Ġsingle":2468,"be":2469,"Ġwrit":2470,"Ġbacter":2471,"Ġbolkonski":2472,"vered":2473,"ability":2474,"Ġlear":2475,"Ġenough":2476,"ohn":2477,"ior":2478,"Ġtears":2479,"Ġsir":2480,"Ġsides":2481,"Ġwood":2482,"Ġuniform":2483,"Ġinde":2484,"ĠĠĠĠĠĠĠĠĠĠĠĠĠĠĠĠĠĠĠĠĠĠĠĠĠĠĠĠĠĠĠĠ":2485,"Ġwounds":2486,"ych":2487,"Ġost":2488,"Ġobject":2489,"Ġoccasion":2490,"ogr":2491,"Ġhardly":2492,"Ġsleep":2493,"Ġsymptoms":2494,"cular":2495,"Ġfat":2496,"ils":2497,"Ġseat":2498,"Ġarri":2499,"Ġinform":2500,"Ġconsiderable":2501,"Ġparticularly":2502,"Ġfreedom":2503,"Ġpriv":2504,"ilt":2505,"ending":2506,"Ġafraid":2507,"Ġattempt":2508,"Ġexpect":2509,"Ġspecial":2510,"ogen":2511,"Ġsecret":2512,"Ġremarked":2513,"Ġsociety":2514,"ert":2515,"Ġlib":2516,"Ġfrance":2517,"Ġexec":2518,"ption":2519,"Ġclosed":2520,"Ġnature":2521,"Ġgran":2522,"Ġglad":2523,"Ġrepublican":2524,"cy":2525,"now":2526,"Ġaim":2527,"Ġloss":2528,"Ġgrew":2529,"ossack":2530,"Ġfavor":2531,"Ġwaiting":2532,"Ġtone":2533,"Ġbit":2534,"Ġcossack":2535,"Ġpath":2536,"Ġneither":2537,"Ġjohn":2538,"Ġreply":2539,"Ġhours":2540,"Ġartery":2541,"Ġsyphilis":2542,"Ġswelling":2543,"come":2544,"fig":2545,"she":2546,"Ġfight":2547,"Ġjoints":2548,"Ġvirgin":2549,"aimed":2550,"Ġadjutant":2551,"ool":2552,"Ġbound":2553,"Ġcand":2554,"Ġmouth":2555,"ĠĠĠĠĠ":2556,"Ġindustri":2557,"tained":2558,"Ġrights":2559,"ception":2560,"Ġconsidered":2561,"Ġpale":2562,"ging":2563,"Ġmur":2564,"Ġlate":2565,"uture":2566,"Ġarea":2567,"Ġsupport":2568,"Ġcapital":2569,"Ġknee":2570,"Ġhaemorrh":2571,"mon":2572,"ror":2573,"Ġwin":2574,"Ġfaces":2575,"Ġfixed":2576,"pper":2577,"Ġcomb":2578,"Ġcoat":2579,"Ġyourself":2580,"Ġhelene":2581,"Ġchanges":2582,"Ġaccording":2583,"Ġwashington":2584,"Ġadminist":2585,"Ġswe":2586,"Ġwide":2587,"icient":2588,"ilar":2589,"Ġtemper":2590,"Ġorigin":2591,"iant":2592,"inical":2593,"reg":2594,"Ġfun":2595,"Ġindivid":2596,"Ġrostovs":2597,"Ġaddress":2598,"Ġmembers":2599,"Ġsmiling":2600,"Ġvillage":2601,"Ġcyst":2602,"Ġpal":2603,"Ġlif":2604,"Ġ13":2605,"une":2606,"Ġsomeone":2607,"aching":2608,"Ġactiv":2609,"hood":2610,"xic":2611,"ster":2612,"Ġsugg":2613,"Ġrelations":2614,"Ġdemand":2615,"Ġconvention":2616,"Ġdecided":2617,"Ġsmiled":2618,"Ġcontrary":2619,"fic":2620,"Ġsch":2621,"Ġcry":2622,"Ġmaster":2623,"Ġbridge":2624,"Ġentire":2625,"blem":2626,"Ġbeginning":2627,"cut":2628,"ee":2629,"hip":2630,"Ġlig":2631,"Ġur":2632,"Ġ11":2633,"aves":2634,"Ġquestions":2635,"Ġlistened":2636,"Ġlesions":2637,"Ġbagration":2638,"side":2639,"Ġbill":2640,"ime":2641,"sequ":2642,"erson":2643,"Ġarrang":2644,"Ġfinally":2645,"Ġemployed":2646,"Ġindividual":2647,"inct":2648,"Ġhast":2649,"ithe":2650,"Ġfem":2651,"aled":2652,"ames":2653,"Ġchur":2654,"Ġarrest":2655,"Ġdiss":2656,"Ġenc":2657,"enced":2658,"Ġfriends":2659,"Ġhope":2660,"Ġmembrane":2661,"uff":2662,"Ġpun":2663,"Ġdrew":2664,"Ġris":2665,"ously":2666,"Ġproblem":2667,"Ġalthough":2668,"ression":2669,"Ġplain":2670,"Ġremain":2671,"Ġobl":2672,"teen":2673,"Ġinterv":2674,"Ġoccurs":2675,"Ġcircum":2676,"Ġgangrene":2677,"Ġcoun":2678,"itiz":2679,"Ġmut":2680,"Ġeye":2681,"alle":2682,"els":2683,"Ġpret":2684,"Ġbreak":2685,"Ġpavlovna":2686,"mer":2687,"ession":2688,"acked":2689,"Ġcovered":2690,"Ġevent":2691,"Ġappoint":2692,"itten":2693,"Ġcommun":2694,"Ġremark":2695,"Ġtakes":2696,"Ġgener":2697,"Ġdistrib":2698,"ilitic":2699,"Ġvarious":2700,"Ġalexander":2701,"lished":2702,"Ġband":2703,"set":2704,"Ġchange":2705,"Ġjack":2706,"Ġdepend":2707,"Ġmuscle":2708,"Ġfibr":2709,"Ġdescribed":2710,"occ":2711,"Ġess":2712,"Ġlive":2713,"rote":2714,"Ġstaff":2715,"oses":2716,"onel":2717,"Ġclot":2718,"Ġshowed":2719,"Ġartic":2720,"Ġinflamm":2721,"Ġindependence":2722,"'ve":2723,"col":2724,"Ġwrote":2725,"Ġble":2726,"Ġpray":2727,"Ġintrod":2728,"Ġaband":2729,"Ġagre":2730,"Ġtrad":2731,"Ġacute":2732,"Ġvoices":2733,"Ġsimilar":2734,"Ġcauses":2735,"--------":2736,"do":2737,"nat":2738,"Ġhot":2739,"lled":2740,"Ġeb":2741,"Ġstay":2742,"acing":2743,"Ġgold":2744,"elle":2745,"Ġrussians":2746,"Ġgrowing":2747,"Ġpopular":2748,"Ġorganism":2749,"Ġpowers":2750,"Ġnerves":2751,"Ġhaemorrhage":2752,"ires":2753,"atch":2754,"Ġcitiz":2755,"Ġlit":2756,"Ġloud":2757,"Ġunable":2758,"Ġnod":2759,"astic":2760,"Ġtrust":2761,"Ġliable":2762,"Ġlips":2763,"Ġsays":2764,"Ġsuppuration":2765,"Ġplease":2766,"Ġdirection":2767,"Ġminutes":2768,"Ġirrit":2769,"Ġfingers":2770,"Ġfurther":2771,"Ġgeorge":2772,"Ġabandon":2773,"hev":2774,"ines":2775,"action":2776,"ples":2777,"Ġsmoke":2778,"Ġmark":2779,"Ġordered":2780,"Ġgovernor":2781,"Ġserious":2782,"Ġdeterm":2783,"Ġsignific":2784,"Ġrepublicans":2785,"Ġterms":2786,"Ġequal":2787,"Ġgroup":2788,"Ġvirginia":2789,"nov":2790,"Ġinev":2791,"Ġsend":2792,"Ġsup":2793,"they":2794,"Ġnatural":2795,"Ġimpro":2796,"izing":2797,"Ġconscious":2798,"Ġopening":2799,"Ġenlar":2800,"Ġinevit":2801,"ale":2802,"bered":2803,"ze":2804,"Ġaustri":2805,"Ġsister":2806,"Ġben":2807,"Ġmoving":2808,"Ġliving":2809,"emia":2810,"agin":2811,"Ġ12":2812,"aug":2813,"Ġglass":2814,"ormal":2815,"Ġgreater":2816,"Ġcarriage":2817,"Ġhappiness":2818,"Ġholding":2819,"Ġstudy":2820,"oiselle":2821,"Ġfrightened":2822,"Ġstraight":2823,"cent":2824,"uel":2825,"Ġbank":2826,"eding":2827,"owing":2828,"Ġkilled":2829,"emoiselle":2830,"Ġmarked":2831,"Ġaccomp":2832,"Ġextens":2833,"Ġaccompan":2834,"treat":2835,"yt":2836,"Ġsure":2837,"thy":2838,"Ġflo":2839,"Ġdeclared":2840,"Ġviol":2841,"Ġidea":2842,"Ġprimary":2843,"pected":2844,"uction":2845,"Ġmis":2846,"ingu":2847,"ows":2848,"pping":2849,"Ġplant":2850,"oste":2851,"Ġstruck":2852,"ugg":2853,"Ġrunning":2854,"Ġtariff":2855,"arcoma":2856,"treatment":2857,"dom":2858,"fied":2859,"ss":2860,"Ġeast":2861,"Ġsharp":2862,"fferson":2863,"Ġrelation":2864,"Ġsimple":2865,"Ġiron":2866,"Ġburs":2867,"Ġincreased":2868,"Ġmademoiselle":2869,"Ġheavy":2870,"Ġpleasure":2871,"Ġprobably":2872,"fect":2873,"ufact":2874,"orn":2875,"Ġlatter":2876,"char":2877,"Ġcolonel":2878,"Ġbroad":2879,"Ġmaid":2880,"Ġoste":2881,"Ġdam":2882,"Ġbell":2883,"ules":2884,"Ġmanufact":2885,"Ġconsists":2886,"Ġdrawn":2887,"ternal":2888,"Ġsettle":2889,"Ġprepared":2890,"Ġauthor":2891,"Ġinfluence":2892,"patych":2893,"che":2894,"Ġchair":2895,"ustry":2896,"Ġclass":2897,"Ġthinking":2898,"Ġextra":2899,"Ġstret":2900,"iction":2901,"Ġsilence":2902,"Ġduty":2903,"Ġproperty":2904,"yal":2905,"Ġage":2906,"Ġsight":2907,"ator":2908,"anch":2909,"Ġlod":2910,"Ġecon":2911,"Ġham":2912,"ager":2913,"Ġalpatych":2914,"Ġmanner":2915,"Ġindustry":2916,"Ġmatters":2917,"Ġprovin":2918,"Ġappearance":2919,"bl":2920,"tr":2921,"Ġmikh":2922,"Ġdry":2923,"stances":2924,"utions":2925,"riev":2926,"Ġroyal":2927,"Ġpassing":2928,"Ġseems":2929,"Ġinstead":2930,"Ġforest":2931,"Ġchanged":2932,"Ġmeaning":2933,"Ġmikhay":2934,"tm":2935,"imate":2936,"Ġneare":2937,"ouses":2938,"Ġmarch":2939,"Ġmarsh":2940,"ysis":2941,"Ġexpressed":2942,"Ġveins":2943,"Ġ191":2944,"Ġlines":2945,"Ġcartil":2946,"Ġslowly":2947,"Ġpurpose":2948,"fe":2949,"hold":2950,"ught":2951,"erate":2952,"ata":2953,"itive":2954,"eness":2955,"enne":2956,"Ġstory":2957,"Ġattended":2958,"Ġrestr":2959,"Ġchiefly":2960,"Ġproduced":2961,"Ġangry":2962,"Ġhurried":2963,"cers":2964,"path":2965,"Ġsher":2966,"Ġfle":2967,"Ġlord":2968,"Ġnar":2969,"Ġexist":2970,"Ġleaving":2971,"Ġcaptain":2972,"Ġsecondary":2973,"Ġobserved":2974,"Ġvictory":2975,"Ġmikhaylovna":2976,"'re":2977,".)":2978,"Ġbouri":2979,"Ġdmit":2980,"Ġanx":2981,"Ġnote":2982,"iful":2983,"apart":2984,"istic":2985,"Ġmeant":2986,"Ġgrad":2987,"Ġintern":2988,"Ġinterrupt":2989,"Ġcapt":2990,"Ġmonths":2991,"ounced":2992,"Ġclearly":2993,"Ġinjury":2994,"Ġmajest":2995,"Ġepithe":2996,"Ġactivity":2997,"Ġbourienne":2998,"iance":2999,"lin":3000,"rel":3001,"chin":3002,"Ġsection":3003,"Ġsovere":3004,"Ġneigh":3005,"Ġemp":3006,"Ġdeform":3007,"Ġsilver":3008,"Ġhistorians":3009,"ogenic":3010,"cutaneous":3011,"iar":3012,"uid":3013,"Ġban":3014,"Ġhat":3015,"Ġpor":3016,"Ġloved":3017,"Ġupper":3018,"Ġdeg":3019,"igs":3020,"Ġ14":3021,"Ġoffice":3022,"Ġearth":3023,"Ġdipl":3024,"Ġcircul":3025,"Ġdressing":3026,"Ġtendon":3027,"Ġpoor":3028,"Ġjefferson":3029,"Ġexcellency":3030,"kn":3031,"Ġsus":3032,"rent":3033,"Ġbir":3034,"urs":3035,"Ġforget":3036,"Ġsheath":3037,"ustom":3038,"Ġmanif":3039,"Ġadop":3040,"ocyt":3041,"Ġapplic":3042,"who":3043,"ney":3044,"Ġconfed":3045,"Ġassist":3046,"Ġcorner":3047,"Ġseries":3048,"Ġphil":3049,"Ġsuffr":3050,"Ġcalm":3051,"Ġdiscuss":3052,"Ġcells":3053,"Ġdestroyed":3054,"Ġpeasants":3055,"Ġneighb":3056,"rum":3057,"Ġbook":3058,"Ġfuture":3059,"uries":3060,"ries":3061,"ptic":3062,"aught":3063,"Ġrostop":3064,"af":3065,"Ġinject":3066,"Ġhero":3067,"ooks":3068,"Ġdischar":3069,"then":3070,"Ġshoulders":3071,"Ġdiseases":3072,"Ġbroken":3073,"Ġdivided":3074,"Ġstern":3075,"Ġpy":3076,"Ġmult":3077,"omic":3078,"Ġspite":3079,"Ġimpl":3080,"Ġblue":3081,"Ġgrand":3082,"Ġgrant":3083,"ization":3084,"Ġexpected":3085,"Ġthoughts":3086,"Ġadvant":3087,"aparte":3088,"Ġrostopchin":3089,"gu":3090,"Ġax":3091,"Ġmater":3092,"estern":3093,"ague":3094,"unk":3095,"Ġimper":3096,"Ġwarm":3097,"Ġresulting":3098,"Ġthirty":3099,"Ġexplain":3100,"Ġportion":3101,"Ġavoid":3102,"Ġkissed":3103,"aft":3104,"dra":3105,"oll":3106,"when":3107,"Ġsour":3108,"Ġwil":3109,"leg":3110,"iding":3111,"right":3112,"osp":3113,"Ġeverybody":3114,"Ġregion":3115,"Ġofficial":3116,"Ġeasy":3117,"Ġextreme":3118,"Ġindeed":3119,"Ġcitizens":3120,"known":3121,"_--":3122,"bo":3123,"morrow":3124,"pro":3125,"rated":3126,"ream":3127,"atives":3128,"Ġbac":3129,"aded":3130,"cend":3131,"Ġasking":3132,"using":3133,"Ġtruth":3134,"Ġperform":3135,"Ġretreat":3136,"Ġabsolute":3137,"Ġelb":3138,"Ġoccurred":3139,"Ġpressed":3140,"Ġrule":3141,"Ġmajority":3142,"Ġestablished":3143,"Ġcontrol":3144,"Ġprisoners":3145,"Ġsort":3146,"Ġinh":3147,"Ġder":3148,"Ġlie":3149,"Ġseven":3150,"Ġvic":3151,"onged":3152,"ences":3153,"Ġproduce":3154,"amma":3155,"Ġarrived":3156,"sy":3157,"Ġpull":3158,"Ġmention":3159,"asm":3160,"irm":3161,"attered":3162,"Ġdistur":3163,"culiar":3164,"Ġpersons":3165,"Ġdepart":3166,"Ġchurch":3167,"ef":3168,"port":3169,"Ġbreat":3170,"ises":3171,"aries":3172,"asis":3173,"Ġlou":3174,"Ġgro":3175,"Ġnotice":3176,"tering":3177,"quest":3178,"Ġunex":3179,"Ġsmo":3180,"Ġlegs":3181,"Ġhandsome":3182,"Ġpresented":3183,"Ġdiagn":3184,"Ġinterests":3185,"....\"":3186,"Ġdetail":3187,"Ġbesides":3188,"Ġremembered":3189,"Ġinquir":3190,"Ġexclaimed":3191,"Ġdiplom":3192,".,":3193,"20":3194,"ivers":3195,"non":3196,"tts":3197,"eng":3198,"Ġfilled":3199,"Ġlying":3200,"ceed":3201,"achuse":3202,"Ġcarol":3203,"Ġdistance":3204,"Ġwritten":3205,"Ġimportance":3206,"Ġmeeting":3207,"Ġvalue":3208,"Ġweeks":3209,"Ġlaughing":3210,"Ġcommerce":3211,"Ġadministration":3212,"achusetts":3213,"Ġtrem":3214,"Ġassemb":3215,"Ġfrank":3216,"umn":3217,"Ġcost":3218,"Ġpeculiar":3219,"Ġstrugg":3220,"Ġaffair":3221,"Ġabsor":3222,"Ġelection":3223,"Ġoccupied":3224,"!...":3225,"isions":3226,"Ġhouses":3227,"Ġfart":3228,"asp":3229,"ulated":3230,"Ġagree":3231,"Ġshoulder":3232,"Ġ189":3233,"Ġgenerals":3234,"Ġmovements":3235,"Ġconvin":3236,"Ġvein":3237,"Ġpolitics":3238,"Ġincrease":3239,"Ġmassachusetts":3240,"Ġfinger":3241,"Ġpolicy":3242,"Ġsuffrage":3243,"Ġought":3244,"Ġsci":3245,"Ġbond":3246,"Ġmount":3247,"road":3248,"utation":3249,"Ġstage":3250,"Ġrushed":3251,"Ġseized":3252,"atever":3253,"Ġreading":3254,"Ġbelow":3255,"Ġleading":3256,"Ġpapers":3257,"Ġeasily":3258,"Ġdrove":3259,"Ġsenate":3260,"Ġterritory":3261,"ficial":3262,".]":3263,"uge":3264,"het":3265,"Ġaid":3266,"Ġwis":3267,"Ġhunt":3268,"Ġriver":3269,"Ġshown":3270,"umm":3271,"Ġamount":3272,"Ġfluid":3273,"Ġsynov":3274,"Ġphys":3275,"Ġtreaty":3276,"Ġwrong":3277,"Ġdevelopment":3278,"Ġbacteria":3279,"Ġbursa":3280,"lock":3281,"atory":3282,"Ġhost":3283,"Ġlived":3284,"ential":3285,"Ġrich":3286,"Ġvan":3287,"Ġexer":3288,"Ġsocial":3289,"aken":3290,"Ġdispl":3291,"Ġplat":3292,"Ġtroub":3293,"Ġinfant":3294,"Ġ20":3295,"Ġ180":3296,"Ġdistingu":3297,"Ġdefinite":3298,"Ġfarmers":3299,"don":3300,"oe":3301,"uous":3302,"Ġwestern":3303,"ashev":3304,"Ġeld":3305,"Ġstat":3306,"usted":3307,"Ġamend":3308,"Ġsubcutaneous":3309,"Ġrecall":3310,"Ġsuffering":3311,"Ġulcers":3312,"Ġsyphilitic":3313,"Ġguns":3314,"'m":3315,"Ġfro":3316,"lected":3317,"acent":3318,"Ġspent":3319,"Ġoutside":3320,"Ġremov":3321,"Ġsurg":3322,"Ġadvanced":3323,"Ġparal":3324,"Ġrupt":3325,"Ġdivision":3326,"Ġbalashev":3327,"Ġdifficulty":3328,"Ġvote":3329,"Ġregarded":3330,"Ġmiles":3331,"Ġorganisms":3332,"10":3333,"ding":3334,"ius":3335,"Ġsolution":3336,"Ġbra":3337,"Ġarch":3338,"Ġenj":3339,"Ġworks":3340,"Ġobv":3341,"Ġshouting":3342,"Ġdestruction":3343,"Ġpersonal":3344,"faction":3345,"Ġwhisp":3346,"Ġapart":3347,"ded":3348,"oly":3349,"Ġwa":3350,"Ġhung":3351,"Ġmich":3352,"Ġnormal":3353,"Ġisland":3354,"olens":3355,"agr":3356,"Ġsave":3357,"Ġspo":3358,"Ġwealth":3359,"Ġago":3360,"odino":3361,"overed":3362,"Ġperm":3363,"Ġscr":3364,"Ġmarya":3365,"Ġsettled":3366,"Ġrailways":3367,"Ġmaterial":3368,"eper":3369,"Ġfate":3370,"Ġthreat":3371,"Ġfract":3372,"Ġdeal":3373,"Ġkar":3374,"Ġmexic":3375,"Ġcannon":3376,"Ġ30":3377,"Ġ32":3378,"Ġinvolved":3379,"Ġsurprise":3380,"Ġcircumstances":3381,"Ġjackson":3382,"Ġmanifest":3383,"fs":3384,"wise":3385,"Ġbod":3386,"iting":3387,"Ġthor":3388,"Ġgri":3389,"Ġconce":3390,"agement":3391,"ape":3392,"Ġspok":3393,"Ġlean":3394,"Ġfever":3395,"ococc":3396,"Ġappears":3397,"Ġapparent":3398,"Ġpassage":3399,"Ġaffection":3400,"Ġletters":3401,"Ġtea":3402,"Ġborodino":3403,"Ġsufficient":3404,"Ġpaid":3405,"Ġmerch":3406,"Ġdelight":3407,"Ġhussars":3408,"Ġfloor":3409,"Ġinterrupted":3410,"Ġwilson":3411,"Ġremoval":3412,"cons":3413,"rist":3414,"uly":3415,"Ġ$":3416,"Ġast":3417,"Ġbull":3418,"Ġcord":3419,"Ġaside":3420,"rily":3421,"Ġchronic":3422,"igration":3423,"Ġinfected":3424,"Ġmarried":3425,"Ġreform":3426,"Ġtalked":3427,"Ġinstant":3428,"Ġdrag":3429,"Ġguards":3430,"Ġhyper":3431,"Ġexperience":3432,"rievna":3433,"Ġdmitrievna":3434,"Ġenjoy":3435,"?'":3436,"Ġharm":3437,"Ġdread":3438,"omin":3439,"ley":3440,"Ġwhatever":3441,"ulations":3442,"redit":3443,"Ġcompar":3444,"which":3445,"Ġsubm":3446,"Ġcertainly":3447,"Ġfigure":3448,"Ġinvolunt":3449,"Ġpyogenic":3450,"Ġlouis":3451,"Ġunexpected":3452,"aemia":3453,"lies":3454,"ray":3455,"hest":3456,"Ġsense":3457,"Ġnations":3458,"Ġbeat":3459,"ational":3460,"Ġintell":3461,"Ġdog":3462,"Ġconnection":3463,"Ġsurrounded":3464,"Ġfarther":3465,"Ġwol":3466,"Ġbare":3467,"Ġtomorrow":3468,"Ġlaug":3469,"alry":3470,"que":3471,"Ġchance":3472,"Ġarth":3473,"Ġjour":3474,"seless":3475,"ortion":3476,"Ġknows":3477,"Ġfrenchman":3478,"Ġcarry":3479,"ĠĠĠĠĠĠĠĠĠĠĠĠĠĠĠĠĠĠĠĠĠĠĠĠ":3480,"Ġends":3481,"Ġshowing":3482,"Ġladies":3483,"Ġlesion":3484,"Ġtype":3485,"Ġtemperature":3486,"Ġsuprem":3487,"Ġcartilage":3488,"Ġmajesty":3489,"olensk":3490,"_;":3491,"Ġbent":3492,"oured":3493,"Ġreaction":3494,"Ġforty":3495,"eth":3496,"Ġrat":3497,"Ġcomfort":3498,"ify":3499,"Ġprol":3500,"Ġleuc":3501,"Ġsmolensk":3502,"Ġordinary":3503,"Ġaddition":3504,"Ġlarger":3505,"Ġcaused":3506,"Ġperioste":3507,"Ġefforts":3508,"Ġexperienced":3509,"ograph":3510,"Ġfibrous":3511,"Ġlaughed":3512,"ĠĠĊ":3513,"Ġflex":3514,"Ġthrow":3515,"Ġnav":3516,"Ġven":3517,"Ġsple":3518,"Ġabol":3519,"Ġnose":3520,"clock":3521,"angu":3522,"ucous":3523,"ancy":3524,"Ġregular":3525,"Ġcharm":3526,"rence":3527,"iliar":3528,"Ġbox":3529,"Ġlisten":3530,"Ġconnective":3531,"Ġpopulation":3532,"Ġdirectly":3533,"Ġwalked":3534,"Ġauthority":3535,"Ġgentleman":3536,"Ġweek":3537,"Ġsherlock":3538,"cil":3539,"inent":3540,"Ġberg":3541,"Ġfurn":3542,"Ġfair":3543,"Ġresemb":3544,"Ġflank":3545,"Ġbegun":3546,"Ġcolour":3547,"Ġhappen":3548,"Ġextent":3549,"Ġadvance":3550,"Ġdressed":3551,"hens":3552,"Ġoriginal":3553,"Ġsurrounding":3554,"Ġdimin":3555,"Ġgalloped":3556,"Ġprivate":3557,"Ġoblig":3558,"Ġsovereign":3559,"cise":3560,"iam":3561,"over":3562,"athe":3563,"Ġbott":3564,"Ġcot":3565,"edem":3566,"ache":3567,"Ġsob":3568,"iece":3569,"Ġparties":3570,"Ġglancing":3571,"Ġmarriage":3572,"Ġgrown":3573,"Ġsigns":3574,"Ġranks":3575,"Ġburst":3576,"ylvan":3577,"Ġbuild":3578,"Ġeuropean":3579,"Ġissue":3580,"ukhov":3581,"Ġlearned":3582,"Ġepitheli":3583,"Ġdischarge":3584,"ylvania":3585,"16":3586,"ners":3587,"ply":3588,"Ġoedem":3589,"Ġmotion":3590,"Ġnone":3591,"icated":3592,"Ġeager":3593,"Ġwithdra":3594,"ift":3595,"Ġsake":3596,"Ġloose":3597,"Ġconsist":3598,"Ġconflic":3599,"Ġabsence":3600,"Ġnorther":3601,"Ġchest":3602,"Ġtransf":3603,"Ġcharacteristic":3604,"Ġacquaint":3605,"Ġbeautiful":3606,"Ġcarolina":3607,"Ġwhispered":3608,"ience":3609,"ler":3610,"zukhov":3611,"onst":3612,"Ġtop":3613,"ask":3614,"Ġthrew":3615,"Ġstation":3616,"Ġank":3617,"essed":3618,"--\"":3619,"Ġknowing":3620,"Ġstruct":3621,"Ġspec":3622,"Ġreadily":3623,"Ġclean":3624,"Ġpleasant":3625,"Ġrepresentatives":3626,"Ġcavity":3627,"Ġimagine":3628,"Ġvarieties":3629,"Ġescape":3630,"night":3631,"Ġbatter":3632,"Ġcrit":3633,"Ġdie":3634,"omb":3635,"ented":3636,"oted":3637,"resp":3638,"Ġsof":3639,"aped":3640,"iple":3641,"Ġentr":3642,"iana":3643,"Ġdesire":3644,"Ġsubst":3645,"Ġ43":3646,"Ġ46":3647,"Ġbroke":3648,"Ġpleased":3649,"Ġfinished":3650,"Ġreceive":3651,"Ġopposition":3652,"Ġxv":3653,"iii":3654,"Ġ177":3655,"Ġinjuries":3656,"Ġmeasure":3657,"Ġpractice":3658,"nsylvania":3659,"Ġhills":3660,"Ġtenderness":3661,"Ġcopy":3662,"with":3663,"atous":3664,"ators":3665,"Ġfrow":3666,"Ġmucous":3667,"Ġdan":3668,"Ġhealing":3669,"Ġbezukhov":3670,"Ġones":3671,"Ġstir":3672,"Ġstop":3673,"Ġforth":3674,"raction":3675,"Ġcorpor":3676,"Ġrecord":3677,"Ġchee":3678,"Ġexcited":3679,"Ġsounds":3680,"Ġconnect":3681,"Ġtreated":3682,"Ġsnow":3683,"Ġstarted":3684,"Ġcompletely":3685,"Ġfaith":3686,"Ġessential":3687,"Ġeconomic":3688,"Ġdegree":3689,"Ġinhab":3690,"Ġsynovial":3691,"Ġnorthern":3692,"!'":3693,"mn":3694,"nes":3695,"Ġsarcoma":3696,"Ġcat":3697,"Ġcou":3698,"Ġhom":3699,"ashed":3700,"Ġhearing":3701,"Ġyell":3702,"chief":3703,"Ġhall":3704,"ushing":3705,"Ġshad":3706,"Ġexternal":3707,"Ġdism":3708,"uncle":3709,"Ġlip":3710,"ignant":3711,"Ġmarry":3712,"Ġ36":3713,"itski":3714,"Ġarticular":3715,"Ġbrill":3716,"Ġadjacent":3717,"Ġthousands":3718,"Ġclosely":3719,"Ġdemocracy":3720,"Ġdemocrats":3721,"Ġpennsylvania":3722,"Ġsuperficial":3723,"Ġgazed":3724,"Ġhigher":3725,"Ġcandid":3726,"Ġcirculation":3727,"bing":3728,"onder":3729,"Ġmess":3730,"Ġmamma":3731,"Ġthrown":3732,"Ġbear":3733,"chan":3734,"americ":3735,"ĠĠĠĠĠĠĠ":3736,"--_":3737,"Ġsoil":3738,"osity":3739,"Ġallow":3740,"Ġcommission":3741,"order":3742,"Ġpolice":3743,"Ġgetting":3744,"Ġpursu":3745,"atively":3746,"Ġcentury":3747,"Ġproposed":3748,"cluded":3749,"Ġgreen":3750,"Ġrequired":3751,"Ġelbow":3752,"Ġinfantry":3753,"Ġleucocyt":3754,"loc":3755,"erable":3756,"velt":3757,"Ġconsequ":3758,"Ġdece":3759,"oose":3760,"umph":3761,"igor":3762,"Ġunless":3763,"osevelt":3764,"Ġclaim":3765,"Ġresist":3766,"Ġglance":3767,"Ġcomposed":3768,"Ġslaves":3769,"Ġactive":3770,"Ġ52":3771,"Ġsimply":3772,"Ġminute":3773,"Ġcontinually":3774,"Ġbonaparte":3775,"Ġconstitutional":3776,"Ġvirt":3777,"Ġdomin":3778,"Ġtriumph":3779,"Ġfifty":3780,"Ġinflammation":3781,"Ġbodies":3782,"Ġspoken":3783,"val":3784,"xim":3785,"Ġoss":3786,"Ġcab":3787,"Ġcaught":3788,"lect":3789,"ental":3790,"Ġiod":3791,"Ġiii":3792,"irt":3793,"ula":3794,"Ġship":3795,"Ġcomes":3796,"Ġfiring":3797,"Ġ187":3798,"Ġpassion":3799,"Ġ42":3800,"Ġdistinct":3801,"Ġboots":3802,"Ġdangerous":3803,"Ġsolemn":3804,"Ġindustrial":3805,"Ġappointed":3806,"Ġgenerally":3807,"Ġporch":3808,"Ġsource":3809,"cri":3810,"gl":3811,"hy":3812,"rate":3813,"Ġtall":3814,"Ġsought":3815,"Ġbig":3816,"Ġcast":3817,"Ġfill":3818,"Ġpack":3819,"Ġmagn":3820,"oral":3821,"leep":3822,"Ġgard":3823,"Ġvary":3824,"rif":3825,"Ġchrist":3826,"estic":3827,"onsense":3828,"Ġpossibility":3829,"Ġpointed":3830,"Ġlistening":3831,"Ġeduc":3832,"Ġbelieved":3833,"Ġcavalry":3834,"Ġdespite":3835,"Ġohio":3836,"Ġforgot":3837,"Ġoccasionally":3838,"Ġliber":3839,"Ġsignificance":3840,"Ġdiagnosis":3841,"Ġamendment":3842,"Ġsplend":3843,"Ġaug":3844,"ones":3845,"Ġbold":3846,"Ġcru":3847,"Ġhuge":3848,"Ġtoday":3849,"asing":3850,"asons":3851,"Ġhen":3852,"Ġyield":3853,"Ġvalle":3854,"Ġunf":3855,"Ġunknown":3856,"elitis":3857,"Ġcloud":3858,"Ġ25":3859,"Ġ27":3860,"Ġacts":3861,"Ġ50":3862,"Ġopport":3863,"Ġestate":3864,"Ġenterpr":3865,"Ġnarrow":3866,"Ġgradually":3867,"Ġbacill":3868,"Ġinhabit":3869,"17":3870,"ech":3871,"pir":3872,"Ġkill":3873,"Ġcho":3874,"Ġcover":3875,"Ġplaces":3876,"ibly":3877,"Ġcontact":3878,"Ġoffered":3879,"Ġlooks":3880,"Ġpref":3881,"Ġ26":3882,"Ġrelig":3883,"Ġengaged":3884,"Ġgives":3885,"Ġpurch":3886,"Ġdirected":3887,"Ġservants":3888,"Ġpointing":3889,"Ġxx":3890,"Ġfamiliar":3891,"Ġbreast":3892,"Ġsympath":3893,"Ġgentlemen":3894,"Ġsituation":3895,"Ġaccepted":3896,"Ġentirely":3897,"rs":3898,"Ġwonder":3899,"Ġcredit":3900,"itated":3901,"oration":3902,"arr":3903,"Ġlies":3904,"Ġasleep":3905,"Ġyouth":3906,"ilton":3907,"Ġsho":3908,"Ġallowed":3909,"Ġalarm":3910,"Ġspl":3911,"Ġspring":3912,"Ġfee":3913,"Ġamp":3914,"Ġamid":3915,"Ġworth":3916,"Ġempt":3917,"Ġrepro":3918,"Ġ40":3919,"Ġfoundation":3920,"Ġcorresp":3921,"Ġprovided":3922,"Ġgraft":3923,"Ġrarely":3924,"Ġsplendid":3925,"Ġcorrespond":3926,"19":3927,"ds":3928,"Ġaut":3929,"rect":3930,"atis":3931,"Ġreach":3932,"Ġring":3933,"Ġshock":3934,"Ġwearing":3935,"Ġenorm":3936,"Ġqual":3937,"Ġclinical":3938,"Ġcontract":3939,"Ġperfect":3940,"igned":3941,"Ġ23":3942,"while":3943,"Ġcarrying":3944,"new":3945,"Ġdefe":3946,"Ġnecessity":3947,"Ġmethods":3948,"Ġarticles":3949,"Ġaccompanied":3950,"Ġadvantage":3951,"from":3952,"pap":3953,"Ġtry":3954,"Ġwag":3955,"Ġfal":3956,"Ġpit":3957,"Ġlat":3958,"Ġrising":3959,"Ġconcl":3960,"Ġhabit":3961,"Ġexact":3962,"osite":3963,"ume":3964,"Ġali":3965,"unity":3966,"Ġcoach":3967,"Ġplans":3968,"Ġtwice":3969,"Ġ28":3970,"Ġ49":3971,"Ġjustice":3972,"ledge":3973,"ritis":3974,"Ġpersist":3975,"Ġtendency":3976,"Ġbald":3977,"Ġduties":3978,"omyelitis":3979,"Ġslightly":3980,"Ġestablish":3981,"Ġhussar":3982,"Ġincluding":3983,"Ġcossacks":3984,"Ġpretty":3985,"Ġsofa":3986,"Ġbrilliant":3987,"14":3988,"gra":3989,"ker":3990,"Ġpac":3991,"Ġpos":3992,"Ġdied":3993,"Ġthro":3994,"Ġleng":3995,"Ġheat":3996,"Ġgau":3997,"Ġdegen":3998,"Ġvent":3999,"aches":4000,"oused":4001,"Ġprove":4002,"Ġjer":4003,"Ġjun":4004,"Ġjames":4005,"Ġspot":4006,"Ġroosevelt":4007,"Ġagr":4008,"Ġagitation":4009,"rows":4010,"Ġfool":4011,"Ġcomprom":4012,"Ġslave":4013,"Ġrooms":4014,"Ġspeech":4015,"Ġwrite":4016,"ucky":4017,"Ġrecognized":4018,"Ġcarts":4019,"Ġindicated":4020,"Ġvariety":4021,"coln":4022,"Ġebook":4023,"Ġnearer":4024,"american":4025,"aily":4026,"eared":4027,"gum":4028,"ially":4029,"your":4030,"ern":4031,"itz":4032,"Ġpict":4033,"Ġna":4034,"Ġnail":4035,"omm":4036,"ades":4037,"Ġreve":4038,"uting":4039,"Ġivan":4040,"iled":4041,"Ġshot":4042,"Ġshaft":4043,"oves":4044,"Ġjul":4045,"Ġweight":4046,"Ġgray":4047,"Ġ39":4048,"Ġangrily":4049,"Ġstead":4050,"Ġbecoming":4051,"Ġdrive":4052,"Ġwatson":4053,"Ġtowns":4054,"Ġburning":4055,"Ġmillion":4056,"Ġmillions":4057,"Ġdisappear":4058,"ikhon":4059,"Ġfortun":4060,"Ġanti":4061,"Ġinnoc":4062,"Ġprinciples":4063,"Ġlodge":4064,"gar":4065,"mber":4066,"ule":4067,"Ġtest":4068,"Ġtikhon":4069,"Ġsor":4070,"Ġsick":4071,"Ġbog":4072,"isters":4073,"Ġhut":4074,"Ġhang":4075,"Ġpock":4076,"Ġpushed":4077,"Ġtox":4078,"Ġconception":4079,"Ġsea":4080,"Ġvital":4081,"ovich":4082,"Ġunivers":4083,"racted":4084,"Ġimmen":4085,"Ġperman":4086,"Ġ22":4087,"Ġ185":4088,"Ġgoods":4089,"Ġconduct":4090,"Ġinstru":4091,"pleas":4092,"ship":4093,"Ġpoints":4094,"Ġapproached":4095,"Ġtowards":4096,"Ġkindly":4097,"Ġcompanion":4098,"Ġrespons":4099,"Ġhighest":4100,"Ġcouncil":4101,"Ġintroduced":4102,"Ġextraord":4103,"Ġinternal":4104,"Ġconvinced":4105,"Ġrupture":4106,"Ġimmense":4107,"hib":4108,"nigs":4109,"oom":4110,"ues":4111,"erans":4112,"itable":4113,"Ġdying":4114,"org":4115,"Ġnonsense":4116,"cely":4117,"Ġexch":4118,"Ġshed":4119,"Ġproved":4120,"Ġmechan":4121,"Ġadams":4122,"Ġcontempt":4123,"Ġexposed":4124,"rug":4125,"Ġserfs":4126,"Ġpainful":4127,"Ġsuffer":4128,"Ġopposite":4129,"Ġeffects":4130,"ashion":4131,"Ġsurprised":4132,"Ġconcerned":4133,"Ġadopted":4134,"Ġinhabitants":4135,"?...":4136,"iable":4137,"zen":4138,"Ġic":4139,"Ġts":4140,"Ġfood":4141,"Ġpred":4142,"Ġlands":4143,"Ġlaughter":4144,"icip":4145,"rop":4146,"verse":4147,"Ġsuite":4148,"ounds":4149,"Ġevidence":4150,"elled":4151,"Ġclub":4152,"Ġprepar":4153,"ucing":4154,"Ġaccident":4155,"Ġcheer":4156,"Ġcircle":4157,"Ġpaused":4158,"Ġsecure":4159,"Ġpromised":4160,"Ġproportion":4161,"Ġuseful":4162,"Ġneeded":4163,"Ġlincoln":4164,"Ġdoctr":4165,"Ġdemocratic":4166,"Ġlegislature":4167,"Ġpeasant":4168,"Ġaffections":4169,"Ġquietly":4170,"ological":4171,"Ġgranulation":4172,"Ġsuggest":4173,"Ġschool":4174,"Ġbleeding":4175,"Ġimprove":4176,"Ġbennigs":4177,"Ġcotton":4178,"'d":4179,"fl":4180,"Ġaust":4181,"Ġtheory":4182,"Ġbil":4183,"Ġmort":4184,"Ġdil":4185,"ication":4186,"Ġgate":4187,"urally":4188,"Ġyard":4189,"Ġrum":4190,"Ġdelic":4191,"Ġdeleg":4192,"ifying":4193,"Ġsafe":4194,"aked":4195,"Ġpros":4196,"Ġsperans":4197,"Ġresol":4198,"Ġgland":4199,"Ġscre":4200,"Ġourselves":4201,"Ġlikely":4202,"issipp":4203,"Ġamericans":4204,"attle":4205,"certain":4206,"Ġconstant":4207,"Ġfeelings":4208,"Ġguard":4209,"Ġparis":4210,"Ġlimited":4211,"Ġunderstanding":4212,"Ġoperations":4213,"Ġmajor":4214,"Ġtouched":4215,"Ġinterference":4216,"Ġarrested":4217,"Ġmultiple":4218,"Ġinvoluntarily":4219,"Ġbattery":4220,"Ġbennigsen":4221,"Ġsperanski":4222,"issippi":4223,"ael":4224,"ees":4225,"four":4226,"ny":4227,"wing":4228,"Ġsorrow":4229,"Ġwit":4230,"Ġpot":4231,"Ġpity":4232,"Ġpure":4233,"Ġdull":4234,"Ġlond":4235,"icked":4236,"Ġgumm":4237,"Ġily":4238,"ulf":4239,"Ġvigor":4240,"Ġsore":4241,"Ġjump":4242,"Ġspan":4243,"mented":4244,"Ġamb":4245,"Ġconserv":4246,"Ġflushed":4247,"Ġactions":4248,"Ġthroughout":4249,"Ġpatri":4250,"Ġ190":4251,"Ġmississippi":4252,"Ġbritain":4253,"Ġarteries":4254,"Ġdeeply":4255,"Ġfavour":4256,"Ġfields":4257,"Ġbeneath":4258,"Ġmalignant":4259,"Ġconsciousness":4260,"Ġapplication":4261,"Ġtremb":4262,"Ġgarden":4263,"Ġvalley":4264,"Ġagricult":4265,"Ġsorry":4266,"Ġlondon":4267,"min":4268,"Ġtib":4269,"rehens":4270,"Ġcities":4271,"Ġhosp":4272,"Ġpri":4273,"ldom":4274,"Ġash":4275,"Ġaspect":4276,"Ġii":4277,"Ġforced":4278,"ulate":4279,"Ġseldom":4280,"Ġclo":4281,"Ġblame":4282,"Ġattend":4283,"Ġmarrow":4284,"Ġ29":4285,"Ġfounded":4286,"Ġadvent":4287,"Ġprominent":4288,"Ġequally":4289,"Ġexception":4290,"Ġformerly":4291,"ergy":4292,"Ġbitter":4293,"Ġrisk":4294,"Ġproblems":4295,"Ġremarkable":4296,"gia":4297,"rid":4298,"was":4299,"Ġcult":4300,"Ġmot":4301,"Ġdav":4302,"Ġdign":4303,"Ġlangu":4304,"lling":4305,"Ġstro":4306,"Ġstup":4307,"Ġvac":4308,"osure":4309,"Ġarriv":4310,"Ġspect":4311,"Ġdoll":4312,"eless":4313,"clinical":4314,"Ġobtained":4315,"Ġsupply":4316,"Ġteeth":4317,"Ġinstit":4318,"Ġtelling":4319,"Ġcentral":4320,"Ġcurrent":4321,"Ġmainly":4322,"ushin":4323,"Ġtuberculosis":4324,"Ġburned":4325,"Ġcrossed":4326,"Ġsquad":4327,"Ġsquare":4328,"Ġjoined":4329,"regular":4330,"Ġarranged":4331,"Ġstruggle":4332,"Ġconflict":4333,"Ġliberty":4334,"Ġaugust":4335,"Ġfalse":4336,"Ġpacific":4337,"48":4338,"ma":4339,"under":4340,"Ġtushin":4341,"Ġbrown":4342,"Ġfas":4343,"Ġfund":4344,"Ġpill":4345,"arov":4346,"ote":4347,"vert":4348,"riet":4349,"Ġprocl":4350,"Ġundert":4351,"Ġliked":4352,"coat":4353,"Ġaccess":4354,"Ġ35":4355,"Ġconfirm":4356,"Ġextended":4357,"Ġcorn":4358,"liament":4359,"Ġsurfaces":4360,"Ġbuilt":4361,"Ġdomestic":4362,"Ġseparated":4363,"Ġvisitor":4364,"Ġdebt":4365,"Ġmoist":4366,"Ġaddressing":4367,"Ġmuttered":4368,"Ġhamilton":4369,"Ġhurriedly":4370,"Ġsupreme":4371,"Ġperiosteum":4372,"Ġextraordinary":4373,"hist":4374,"law":4375,"inc":4376,"erated":4377,"Ġpip":4378,"Ġinher":4379,"oring":4380,"iments":4381,"ete":4382,"Ġkur":4383,"Ġexcess":4384,"osen":4385,"Ġclay":4386,"Ġundergo":4387,"Ġcanal":4388,"Ġrepair":4389,"Ġremains":4390,"Ġthank":4391,"Ġwars":4392,"Ġgenius":4393,"Ġobst":4394,"Ġ48":4395,"Ġowners":4396,"Ġextend":4397,"Ġstreets":4398,"Ġ53":4399,"Ġbelong":4400,"Ġirregular":4401,"Ġputting":4402,"Ġswift":4403,"Ġ178":4404,"Ġcompanies":4405,"Ġdelay":4406,"force":4407,"Ġwalk":4408,"Ġfirmly":4409,"Ġtouch":4410,"Ġ*\"":4411,"Ġdisturb":4412,"Ġenormous":4413,"iated":4414,"Ġtur":4415,"inity":4416,"Ġbow":4417,"Ġcure":4418,"Ġmild":4419,"Ġdu":4420,"Ġthy":4421,"Ġnur":4422,"omen":4423,"ama":4424,"olic":4425,"illary":4426,"agg":4427,"Ġargum":4428,"Ġspain":4429,"Ġintention":4430,"gel":4431,"Ġmoreover":4432,"Ġresour":4433,"Ġblow":4434,"Ġafterwards":4435,"Ġsurre":4436,"Ġgreatest":4437,"Ġskull":4438,"Ġrefused":4439,"Ġaddressed":4440,"Ġsilently":4441,"Ġminister":4442,"Ġguests":4443,"Ġparliament":4444,"aiting":4445,"Ġexplan":4446,"Ġcarefully":4447,"Ġwatch":4448,"Ġfallen":4449,"Ġwalls":4450,"Ġgreet":4451,"Ġutter":4452,"Ġindependent":4453,"Ġrailway":4454,"Ġvera":4455,"Ġlifted":4456,"Ġabandoned":4457,"Ġosteomyelitis":4458,"Ġempire":4459,"ustomed":4460,"hetic":4461,"Ġelder":4462,"Ġenterprise":4463,"Ġstupid":4464,"eg":4465,"vitski":4466,"wood":4467,"hel":4468,"erous":4469,"itor":4470,"Ġmat":4471,"Ġnes":4472,"icat":4473,"Ġwhist":4474,"Ġstone":4475,"Ġforb":4476,"amation":4477,"ulse":4478,"illery":4479,"Ġchosen":4480,"ighed":4481,"Ġuncom":4482,"Ġunpleas":4483,"ocked":4484,"Ġensu":4485,"Ġattitude":4486,"Ġ47":4487,"Ġbattal":4488,"Ġmonth":4489,"Ġfacts":4490,"Ġfrontier":4491,"Ġprotect":4492,"Ġdevil":4493,"Ġheaven":4494,"Ġwalking":4495,"Ġgirls":4496,"Ġriding":4497,"Ġexamination":4498,"Ġsensation":4499,"Ġrubles":4500,"Ġinformation":4501,"Ġagreed":4502,"Ġaustrian":4503,"Ġsettlement":4504,"Ġoedema":4505,"Ġcompromise":4506,"Ġjulie":4507,"11":4508,"eas":4509,"field":4510,"hin":4511,"iary":4512,"iph":4513,"loo":4514,"sk":4515,"west":4516,"Ġsway":4517,"Ġbowed":4518,"adel":4519,"Ġonto":4520,"Ġsev":4521,"Ġshare":4522,"Ġshook":4523,"Ġcomr":4524,"Ġalive":4525,"Ġmel":4526,"Ġdisco":4527,"rah":4528,"Ġotherwise":4529,"Ġtimid":4530,"anches":4531,"Ġslough":4532,"Ġpowerful":4533,"Ġinteresting":4534,"ounce":4535,"Ġartillery":4536,"Ġcenter":4537,"Ġmerry":4538,"Ġmasses":4539,"Ġassume":4540,"Ġwhisper":4541,"Ġbeauty":4542,"Ġagreement":4543,"Ġhospital":4544,"Ġcloak":4545,"Ġnurse":4546,"Ġnesvitski":4547,"Ġsam":4548,"ony":4549,"Ġcreat":4550,"Ġfully":4551,"Ġfashion":4552,"Ġnon":4553,"Ġeh":4554,"Ġstout":4555,"Ġiv":4556,"Ġrout":4557,"terday":4558,"iling":4559,"Ġsav":4560,"istol":4561,"ocking":4562,"acters":4563,"Ġimpression":4564,"phia":4565,"Ġknowledge":4566,"Ġ1812":4567,"Ġ37":4568,"Ġsky":4569,"Ġcharge":4570,"Ġcharacters":4571,"Ġtex":4572,"Ġelements":4573,"Ġraising":4574,"Ġedges":4575,"Ġexcit":4576,"Ġmaintain":4577,"Ġcellular":4578,"Ġvisitors":4579,"Ġnegot":4580,"Ġwriting":4581,"Ġfunction":4582,"Ġsuggested":4583,"Ġenlarged":4584,"Ġderived":4585,"Ġsmooth":4586,"Ġjourney":4587,"Ġyellow":4588,"Ġgauze":4589,"history":4590,"**":4591,"kov":4592,"work":4593,"Ġtong":4594,"Ġwet":4595,"Ġpan":4596,"Ġmud":4597,"Ġmach":4598,"ompl":4599,"Ġeat":4600,"Ġgest":4601,"ulating":4602,"ements":4603,"Ġspr":4604,"ibin":4605,"Ġworn":4606,"ishment":4607,"have":4608,"Ġfond":4609,"ension":4610,"Ġ24":4611,"Ġaccompl":4612,"Ġobtain":4613,"teenth":4614,"Ġsubs":4615,"Ġ34":4616,"Ġheads":4617,"Ġconfused":4618,"rosis":4619,"Ġforehead":4620,"Ġreturning":4621,"Ġapproaching":4622,"Ġtendons":4623,"Ġprofound":4624,"Ġhyd":4625,"Ġlegislatures":4626,"Ġpolicies":4627,"Ġcommercial":4628,"Ġsusp":4629,"Ġabsolutely":4630,"Ġdistinguished":4631,"Ġparalysis":4632,"Ġobvious":4633,"Ġmexico":4634,"Ġdreadful":4635,"Ġbilibin":4636,"Ġarrival":4637,"jo":4638,"mar":4639,"pet":4640,"ski":4641,"zing":4642,"Ġaud":4643,"erted":4644,"Ġcicat":4645,"roph":4646,"Ġrul":4647,"Ġsuc":4648,"ope":4649,"Ġabdom":4650,"inded":4651,"Ġque":4652,"Ġgrasp":4653,"Ġdescend":4654,"Ġfollows":4655,"Ġreferred":4656,"Ġrecomm":4657,"Ġadvoc":4658,"Ġoccurrence":4659,"Ġmusk":4660,"Ġfreely":4661,"Ġcrime":4662,"Ġprevious":4663,"Ġsubjects":4664,"Ġgermany":4665,"Ġseparate":4666,"Ġannounced":4667,"Ġgroups":4668,"Ġanimated":4669,"Ġquarters":4670,"Ġgazing":4671,"Ġfighting":4672,"Ġliter":4673,"Ġdetails":4674,"Ġamputation":4675,"Ġinnocent":4676,"13":4677,"bac":4678,"cing":4679,"pre":4680,"Ġwishing":4681,"Ġfast":4682,"Ġded":4683,"Ġwhit":4684,"Ġana":4685,"Ġanci":4686,"illa":4687,"Ġnec":4688,"Ġbranches":4689,"Ġfold":4690,"Ġattain":4691,"ensive":4692,"Ġ38":4693,"Ġ45":4694,"Ġdepri":4695,"Ġfinal":4696,"Ġpressing":4697,"Ġpromise":4698,"cribed":4699,"Ġdriven":4700,"Ġdarkness":4701,"Ġquarter":4702,"Ġdemanded":4703,"Ġmentioned":4704,"Ġthorough":4705,"rifice":4706,"Ġcruel":4707,"Ġopportunity":4708,"Ġsquadron":4709,"hus":4710,"Ġid":4711,"Ġfer":4712,"Ġparent":4713,"Ġinit":4714,"ann":4715,"Ġital":4716,"Ġshape":4717,"Ġkent":4718,"Ġexper":4719,"antic":4720,"igr":4721,"Ġspace":4722,"ressing":4723,"aud":4724,"Ġworse":4725,"Ġworking":4726,"Ġcontaining":4727,"Ġembr":4728,"Ġattacked":4729,"Ġaccustomed":4730,"Ġ183":4731,"Ġrecur":4732,"Ġmusic":4733,"Ġmonarch":4734,"Ġadmit":4735,"Ġnumbers":4736,"Ġtransport":4737,"Ġtempor":4738,"Ġtreas":4739,"Ġyesterday":4740,"Ġlimbs":4741,"fortun":4742,"Ġassumed":4743,"Ġscarcely":4744,"Ġtyp":4745,"ology":4746,"Ġexpecting":4747,"Ġwidely":4748,"Ġfemur":4749,"Ġmarshal":4750,"Ġphiladel":4751,"Ġmichael":4752,"Ġapparently":4753,"Ġdoctrine":4754,"Ġspectac":4755,"Ġphiladelphia":4756,"camp":4757,"ey":4758,"me":4759,"rict":4760,"uit":4761,"isc":4762,"Ġhay":4763,"Ġpuls":4764,"Ġlog":4765,"Ġheight":4766,"entions":4767,"Ġrejo":4768,"Ġstamp":4769,"Ġnotes":4770,"Ġshri":4771,"Ġships":4772,"thir":4773,"umatic":4774,"oston":4775,"Ġhanded":4776,"Ġthromb":4777,"Ġcarb":4778,"Ġentering":4779,"Ġenthus":4780,"Ġactual":4781,"Ġacid":4782,"Ġrelief":4783,"Ġhappens":4784,"Ġreck":4785,"Ġclever":4786,"Ġdefense":4787,"Ġcommanders":4788,"Ġhorror":4789,"Ġadmitted":4790,"noe":4791,"Ġcolle":4792,"Ġprotection":4793,"Ġorganized":4794,"erences":4795,"Ġfibres":4796,"Ġhistorical":4797,"Ġviews":4798,"Ġindustries":4799,"Ġdetermined":4800,"ataev":4801,"Ġthroat":4802,"Ġspanish":4803,"Ġtibia":4804,"Ġashamed":4805,"Ġkuragin":4806,"Ġenthusi":4807,"ients":4808,"iny":4809,"Ġsut":4810,"Ġwid":4811,"Ġtoll":4812,"Ġlest":4813,"Ġreasons":4814,"stand":4815,"Ġstiff":4816,"Ġanter":4817,"Ġexha":4818,"Ġfeature":4819,"iel":4820,"Ġmanaged":4821,"Ġresolute":4822,"Ġpresents":4823,"Ġcolumn":4824,"Ġsupper":4825,"Ġserve":4826,"Ġadvice":4827,"Ġmuscular":4828,"Ġserved":4829,"Ġsuffered":4830,"iety":4831,"Ġcolonists":4832,"Ġwrist":4833,"Ġinterested":4834,"Ġrecognised":4835,"Ġavail":4836,"Ġattacks":4837,"Ġtaxes":4838,"Ġfailed":4839,"Ġceased":4840,"Ġanxious":4841,"Ġfracture":4842,"Ġkarataev":4843,"Ġwolf":4844,"Ġlength":4845,"Ġdegeneration":4846,"gment":4847,"zh":4848,"Ġwild":4849,"Ġboston":4850,"Ġcra":4851,"Ġfulf":4852,"Ġpig":4853,"alous":4854,"Ġstar":4855,"Ġrang":4856,"Ġshut":4857,"quet":4858,"Ġsprang":4859,"Ġfeared":4860,"Ġuncle":4861,"Ġnoble":4862,"Ġcommitt":4863,"Ġindiff":4864,"Ġhandker":4865,"Ġinfective":4866,"Ġarmies":4867,"Ġflour":4868,"Ġ188":4869,"Ġcondem":4870,"Ġcalling":4871,"Ġreview":4872,"Ġcuri":4873,"Ġpropriet":4874,"Ġedge":4875,"Ġtravel":4876,"Ġgermans":4877,"Ġheavily":4878,"ushka":4879,"Ġdomain":4880,"Ġfatal":4881,"Ġcysts":4882,"Ġdistribution":4883,"Ġirritation":4884,"Ġexistence":4885,"Ġplatform":4886,"Ġforgotten":4887,"Ġexcitement":4888,"Ġnegoti":4889,"Ġhandkerchief":4890,"oon":4891,"Ġtight":4892,"Ġsigh":4893,"Ġwine":4894,"Ġhun":4895,"Ġhind":4896,"Ġfit":4897,"Ġdust":4898,"Ġdream":4899,"Ġnice":4900,"Ġreb":4901,"Ġstim":4902,"akes":4903,"Ġcontraction":4904,"Ġtrain":4905,"Ġwilliam":4906,"Ġflow":4907,"Ġhousehold":4908,"Ġinvest":4909,"Ġseriously":4910,"Ġdron":4911,"ilities":4912,"herent":4913,"Ġadmission":4914,"Ġstepped":4915,"Ġincreasing":4916,"Ġtubercle":4917,"Ġbreaking":4918,"Ġpractical":4919,"Ġdebts":4920,"Ġfifteen":4921,"Ġstriking":4922,"Ġjoin":4923,"Ġcreated":4924,"Ġencour":4925,"Ġinevitable":4926,"Ġplanting":4927,"Ġimperial":4928,"Ġsurgical":4929,"Ġintellect":4930,"athered":4931,"Ġcritic":4932,"Ġempty":4933,"Ġpermanent":4934,"Ġpatriot":4935,"Ġlanguage":4936,"Ġtongue":4937,"Ġcuriosity":4938,"dy":4939,"kward":4940,"sp":4941,"inated":4942,"ndered":4943,"Ġbab":4944,"isp":4945,"Ġfil":4946,"Ġpiece":4947,"Ġmine":4948,"Ġinner":4949,"arse":4950,"Ġlum":4951,"omas":4952,"Ġrough":4953,"Ġconve":4954,"aming":4955,"Ġsuperi":4956,"acity":4957,"Ġproceed":4958,"Ġarbit":4959,"Ġgoes":4960,"Ġdidn":4961,"Ġeverywhere":4962,"achment":4963,"erved":4964,"Ġafford":4965,"Ġconfined":4966,"Ġdecision":4967,"Ġcrown":4968,"Ġexplained":4969,"Ġfinding":4970,"Ġvisible":4971,"Ġplayed":4972,"Ġsummer":4973,"Ġlegislation":4974,"Ġprisoner":4975,"ukov":4976,"Ġhealthy":4977,"Ġdeparture":4978,"Ġcomparatively":4979,"Ġprolonged":4980,"Ġgesture":4981,"15":4982,"ipped":4983,"light":4984,"ox":4985,"och":4986,"will":4987,"Ġwed":4988,"erus":4989,"Ġcoo":4990,"Ġcard":4991,"Ġfac":4992,"Ġpage":4993,"Ġmood":4994,"Ġmedi":4995,"Ġlic":4996,"Ġlives":4997,"Ġhes":4998,"Ġgathered":4999,"Ġrate":5000,"Ġframe":5001,"Ġsearch":5002,"Ġva":5003,"Ġoffer":5004,"aved":5005,"Ġnaturally":5006,"Ġsupplies":5007,"Ġcorps":5008,"Ġabsent":5009,"Ġinsisted":5010,"Ġterror":5011,"Ġimmigration":5012,"Ġanger":5013,"Ġawkward":5014,"Ġspreading":5015,"Ġplanters":5016,"Ġdropped":5017,"Ġcontrast":5018,"Ġgrave":5019,"Ġvotes":5020,"Ġdespair":5021,"Ġhollow":5022,"Ġmistaken":5023,"Ġtorn":5024,"Ġfault":5025,"Ġsituated":5026,"Ġinterfere":5027,"Ġgranulations":5028,"Ġclothes":5029,"Ġsheaths":5030,"Ġinjection":5031,"Ġabsorbed":5032,"Ġscience":5033,"Ġphysical":5034,"conscious":5035,"Ġshadow":5036,"Ġkentucky":5037,"!...\"":5038,"cher":5039,"fit":5040,"wor":5041,"Ġod":5042,"Ġwore":5043,"Ġpistol":5044,"any":5045,"anci":5046,"ading":5047,"Ġric":5048,"Ġrules":5049,"Ġconcent":5050,"Ġseptic":5051,"Ġvice":5052,"Ġshame":5053,"iforn":5054,"Ġpruss":5055,"Ġintim":5056,"Ġcontest":5057,"Ġpreced":5058,"Ġgreatly":5059,"Ġskill":5060,"Ġconfusion":5061,"Ġsuppose":5062,"Ġpatients":5063,"Ġears":5064,"Ġestates":5065,"Ġswoll":5066,"Ġapproval":5067,"Ġfamous":5068,"Ġcommonly":5069,"Ġorgans":5070,"Ġruin":5071,"Ġwatched":5072,"Ġexceed":5073,"Ġplaying":5074,"Ġelectronic":5075,"Ġissued":5076,"Ġentrance":5077,"Ġconclusion":5078,"Ġexplanation":5079,"Ġtexas":5080,"Ġswollen":5081,"good":5082,"just":5083,"kh":5084,"tub":5085,"Ġsighed":5086,"Ġwool":5087,"Ġhid":5088,"Ġdig":5089,"Ġnine":5090,"icle":5091,"Ġrese":5092,"rops":5093,"Ġuseless":5094,"Ġstorm":5095,"Ġraw":5096,"Ġconcluded":5097,"ulent":5098,"Ġsept":5099,"Ġdeeper":5100,"Ġrob":5101,"Ġintended":5102,"ieve":5103,"Ġoutl":5104,"Ġquant":5105,"Ġsomewhere":5106,"Ġsurge":5107,"Ġaccum":5108,"ruct":5109,"Ġpossess":5110,"Ġdrink":5111,"Ġcolony":5112,"Ġstandard":5113,"Ġdeclar":5114,"Ġcontrad":5115,"Ġnoticing":5116,"Ġuttered":5117,"Ġideas":5118,"Ġdisappeared":5119,"Ġanimal":5120,"Ġleadership":5121,"Ġsatisfaction":5122,"Ġsweet":5123,"Ġpulled":5124,"Ġtrouble":5125,"Ġunexpectedly":5126,"Ġcharming":5127,"Ġleucocytes":5128,"Ġtsar":5129,"Ġcheerful":5130,"rehensible":5131,"Ġunpleasant":5132,"father":5133,"gement":5134,"oided":5135,"pri":5136,"rays":5137,"Ġbased":5138,"Ġbooks":5139,"Ġcub":5140,"Ġmixed":5141,"Ġbend":5142,"Ġreception":5143,"Ġreaching":5144,"Ġrenew":5145,"stained":5146,"ille":5147,"ember":5148,"quar":5149,"aker":5150,"orted":5151,"Ġenact":5152,"Ġresolution":5153,"clay":5154,"Ġbrain":5155,"Ġattract":5156,"Ġinterior":5157,"Ġcorrect":5158,"Ġserge":5159,"Ġelev":5160,"Ġforever":5161,"Ġelastic":5162,"Ġmoments":5163,"Ġsimon":5164,"Ġmoral":5165,"Ġreven":5166,"Ġcrim":5167,"Ġpropos":5168,"Ġfourth":5169,"Ġlymphatic":5170,"Ġepiph":5171,"Ġhelped":5172,"Ġavoided":5173,"Ġsuccessful":5174,"Ġimmediate":5175,"Ġdestroy":5176,"Ġexcellent":5177,"Ġprinciple":5178,"Ġforgive":5179,"Ġhastily":5180,"Ġextension":5181,"Ġperformed":5182,"Ġlouisiana":5183,"Ġabolition":5184,"Ġacquaintance":5185,"Ġcandidate":5186,"Ġvirtue":5187,"Ġsympathy":5188,"Ġresources":5189,"car":5190,"can":5191,"eers":5192,"ford":5193,"Ġtit":5194,"Ġapr":5195,"Ġcher":5196,"Ġhart":5197,"Ġfix":5198,"utive":5199,"etan":5200,"chair":5201,"Ġsequest":5202,"Ġproof":5203,"Ġrow":5204,"oph":5205,"Ġunconscious":5206,"cia":5207,"Ġtrunk":5208,"Ġpartly":5209,"Ġbranch":5210,"Ġ(_":5211,"Ġovert":5212,"Ġtwel":5213,"Ġconsult":5214,"Ġ33":5215,"Ġ44":5216,"Ġknees":5217,"Ġinstrum":5218,"Ġkeen":5219,"Ġsimpl":5220,"Ġvaries":5221,"Ġmemory":5222,"Ġvex":5223,"Ġreplaced":5224,"Ġpreviously":5225,"Ġmerc":5226,"Ġmissouri":5227,"Ġcollect":5228,"Ġinjured":5229,"Ġze":5230,"Ġbadly":5231,"Ġvolunt":5232,"Ġnervous":5233,"Ġkeeping":5234,"Ġtrusts":5235,"Ġcaptured":5236,"Ġbreath":5237,"Ġleaning":5238,"Ġdelegates":5239,"Ġpipe":5240,"Ġsucceed":5241,"ifornia":5242,"joint":5243,"ni":5244,"Ġtear":5245,"inations":5246,"Ġbought":5247,"Ġnull":5248,"Ġec":5249,"Ġgap":5250,"Ġgame":5251,"Ġrib":5252,"allen":5253,"Ġsections":5254,"Ġvague":5255,"acious":5256,"Ġchoose":5257,"Ġalter":5258,"Ġabroad":5259,"Ġmyst":5260,"Ġevil":5261,"acks":5262,"Ġsmell":5263,"Ġcountries":5264,"Ġscot":5265,"Ġregret":5266,"Ġdesper":5267,"Ġsubsequ":5268,"Ġmakes":5269,"Ġcapable":5270,"Ġcoron":5271,"Ġdemonst":5272,"Ġcausing":5273,"plex":5274,"Ġrevol":5275,"Ġreceiving":5276,"Ġbusy":5277,"Ġappropri":5278,"Ġmrs":5279,"ylosis":5280,"Ġaware":5281,"Ġportions":5282,"Ġcrowded":5283,"Ġbuy":5284,"Ġrecognize":5285,"Ġappeal":5286,"Ġfalling":5287,"Ġcrossing":5288,"Ġreports":5289,"Ġweakness":5290,"Ġarticle":5291,"Ġauthorities":5292,"Ġbanks":5293,"Ġexercise":5294,"Ġmerchants":5295,"Ġaston":5296,"Ġarthritis":5297,"arrass":5298,"Ġpocket":5299,"Ġdelicate":5300,"Ġwitness":5301,"quarters":5302,"\"--":5303,"gor":5304,"ky":5305,"Ġaunt":5306,"reci":5307,"oned":5308,"Ġbase":5309,"Ġpel":5310,"Ġmob":5311,"Ġthumb":5312,"stairs":5313,"Ġign":5314,"ulous":5315,"alled":5316,"ables":5317,"Ġroof":5318,"Ġweb":5319,"Ġwelf":5320,"Ġintimate":5321,"Ġlevel":5322,"Ġunions":5323,"sured":5324,"Ġremove":5325,"Ġforming":5326,"Ġperplex":5327,"Ġattached":5328,"Ġconsent":5329,"Ġscattered":5330,"Ġstrict":5331,"Ġdiffuse":5332,"Ġrecent":5333,"Ġcleared":5334,"evich":5335,"Ġpossession":5336,"Ġborz":5337,"Ġfriendly":5338,"Ġleader":5339,"Ġdraft":5340,"Ġoppon":5341,"Ġhighly":5342,"ckin":5343,"Ġsword":5344,"Ġ179":5345,"Ġsteam":5346,"Ġprotective":5347,"Ġdelib":5348,"Ġawaiting":5349,"Ġspreads":5350,"Ġvien":5351,"Ġrequire":5352,"Ġhumanity":5353,"Ġembol":5354,"Ġembarrass":5355,"Ġgeorgia":5356,"Ġreported":5357,"Ġpunct":5358,"Ġmarket":5359,"Ġenlargement":5360,"Ġaustria":5361,"Ġdeformity":5362,"Ġdiplomatic":5363,"Ġfranklin":5364,"Ġepithelium":5365,"Ġdaniel":5366,"Ġbacillus":5367,"Ġagriculture":5368,"Ġwelfare":5369,"grow":5370,"inate":5371,"Ġoct":5372,"rep":5373,"Ġfought":5374,"Ġmas":5375,"Ġrele":5376,"rot":5377,"otograph":5378,"Ġride":5379,"rig":5380,"Ġproud":5381,"Ġalb":5382,"Ġaroused":5383,"Ġjaw":5384,"Ġweary":5385,"Ġleague":5386,"Ġunlike":5387,"Ġunnat":5388,"Ġdisloc":5389,"ival":5390,"Ġagitated":5391,"Ġremed":5392,"Ġarmed":5393,"Ġacting":5394,"Ġspeed":5395,"Ġways":5396,"yaz":5397,"Ġ59":5398,"Ġconsidering":5399,"Ġsinus":5400,"Ġadmir":5401,"Ġopposed":5402,"Ġshouts":5403,"Ġraise":5404,"Ġinflamed":5405,"factory":5406,"Ġconnected":5407,"Ġnewspap":5408,"Ġvalu":5409,"Ġoccupation":5410,"govern":5411,"Ġacquired":5412,"Ġextremity":5413,"Ġholy":5414,"Ġinformed":5415,"Ġmurat":5416,"Ġwinter":5417,"Ġdissatis":5418,"Ġebooks":5419,"Ġassistance":5420,"Ġbonds":5421,"Ġrecalled":5422,"Ġpermission":5423,"Ġhyperaemia":5424,"Ġtransferred":5425,"Ġankylosis":5426,"cription":5427,"Ġeducation":5428,"Ġreligious":5429,"Ġreproach":5430,"Ġcoachman":5431,"Ġauster":5432,"Ġdignity":5433,"Ġforbid":5434,"hol":5435,"litz":5436,"met":5437,"master":5438,"ober":5439,"rison":5440,"tur":5441,"Ġach":5442,"Ġsan":5443,"Ġsong":5444,"erior":5445,"Ġcustom":5446,"edition":5447,"Ġhipp":5448,"Ġmcc":5449,"Ġtoes":5450,"Ġlose":5451,"Ġloy":5452,"Ġnurs":5453,"icut":5454,"roe":5455,"lym":5456,"urated":5457,"Ġsugar":5458,"Ġshirt":5459,"Ġsaved":5460,"Ġalliance":5461,"Ġalt":5462,"Ġwear":5463,"aryn":5464,"unks":5465,"Ġtran":5466,"Ġoverlying":5467,"Ġthrust":5468,"Ġlegal":5469,"Ġsmaller":5470,"Ġphr":5471,"Ġcrack":5472,"Ġproduct":5473,"Ġlayer":5474,"Ġslee":5475,"Ġtrave":5476,"Ġtrees":5477,"Ġfrequent":5478,"Ġbarclay":5479,"Ġrevolutionary":5480,"Ġwindows":5481,"Ġdescribe":5482,"Ġsatisfied":5483,"Ġsecretary":5484,"Ġurged":5485,"Ġdepends":5486,"Ġinevitability":5487,"Ġstretched":5488,"Ġdisplay":5489,"olyte":5490,"Ġwaited":5491,"Ġresembling":5492,"Ġbuilding":5493,"Ġfascia":5494,"Ġausterlitz":5495,"Ġhippolyte":5496,"iot":5497,"ux":5498,"Ġtrib":5499,"Ġwages":5500,"Ġhide":5501,"Ġphen":5502,"Ġmason":5503,"esh":5504,"Ġtot":5505,"anes":5506,"icles":5507,"Ġgown":5508,"rose":5509,"ilised":5510,"Ġsear":5511,"Ġdeed":5512,"Ġvain":5513,"apse":5514,"Ġalco":5515,"Ġprint":5516,"Ġadult":5517,"Ġenforce":5518,"pless":5519,"Ġcontem":5520,"Ġcommitted":5521,"Ġperfor":5522,"Ġgrain":5523,"Ġfrenchmen":5524,"Ġdistant":5525,"Ġincident":5526,"Ġincomp":5527,"Ġserum":5528,"Ġcontinue":5529,"Ġinstance":5530,"Ġmale":5531,"Ġmember":5532,"Ġshows":5533,"rency":5534,"Ġprovision":5535,"Ġprovisions":5536,"Ġrecovery":5537,"Ġhighness":5538,"Ġcentre":5539,"Ġcurrency":5540,"Ġsleigh":5541,"Ġfigures":5542,"Ġmidst":5543,"Ġrealized":5544,"Ġprofession":5545,"Ġburns":5546,"Ġgrey":5547,"Ġseparation":5548,"Ġdeveloped":5549,"Ġimagination":5550,"Ġexecutive":5551,"Ġligation":5552,"Ġextensive":5553,"Ġnearest":5554,"Ġassistant":5555,"Ġextremely":5556,"Ġfrowning":5557,"Ġconnecticut":5558,"Ġhenry":5559,"Ġpurchase":5560,"Ġjumped":5561,"Ġdeclaration":5562,"Ġvienna":5563,"Ġoctober":5564,"government":5565,"Ġphenomen":5566,"49":5567,"hand":5568,"lers":5569,"tt":5570,"Ġtask":5571,"ites":5572,"Ġpion":5573,"Ġet":5574,"Ġreject":5575,"iderm":5576,"Ġrig":5577,"amber":5578,"allow":5579,"Ġvast":5580,"riages":5581,"Ġshaking":5582,"Ġneur":5583,"Ġchallen":5584,"anting":5585,"umns":5586,"Ġprogr":5587,"Ġuncertain":5588,"Ġadhes":5589,"Ġcoal":5590,"Ġmyster":5591,"Ġagents":5592,"Ġcontents":5593,"Ġblock":5594,"Ġglory":5595,"Ġarmchair":5596,"Ġattent":5597,"Ġexposure":5598,"Ġflight":5599,"Ġscene":5600,"ipher":5601,"Ġdesired":5602,"Ġcolumns":5603,"encies":5604,"lessly":5605,"Ġbattles":5606,"Ġinsp":5607,"Ġfinish":5608,"Ġnumerous":5609,"Ġprompt":5610,"Ġcampf":5611,"Ġsinging":5612,"Ġballs":5613,"Ġballot":5614,"Ġpreparing":5615,"Ġjealous":5616,"Ġulceration":5617,"Ġjoyful":5618,"Ġcontrovers":5619,"Ġexamined":5620,"Ġmodern":5621,"Ġnegro":5622,"Ġradium":5623,"Ġbandage":5624,"Ġviolence":5625,"Ġflew":5626,"Ġvicinity":5627,"Ġassembled":5628,"Ġfrost":5629,"Ġsubstance":5630,"Ġcopyright":5631,"nessee":5632,"Ġautumn":5633,"Ġjunction":5634,"Ġtoxins":5635,"Ġtrembling":5636,"Ġanaest":5637,"Ġancient":5638,"idermis":5639,"25":5640,"bec":5641,"gest":5642,"kind":5643,"Ġident":5644,"Ġvers":5645,"Ġaide":5646,"Ġarose":5647,"Ġox":5648,"Ġbaker":5649,"Ġcere":5650,"Ġcous":5651,"Ġfancy":5652,"Ġpulse":5653,"Ġmir":5654,"Ġmac":5655,"Ġmun":5656,"Ġmatch":5657,"Ġincl":5658,"Ġdate":5659,"Ġtobac":5660,"orable":5661,"Ġretain":5662,"Ġult":5663,"aya":5664,"Ġsem":5665,"Ġselected":5666,"agger":5667,"Ġsaf":5668,"Ġspasm":5669,"Ġunfortun":5670,"Ġenv":5671,"Ġappreci":5672,"ansas":5673,"anged":5674,"eping":5675,"Ġperipher":5676,"Ġcompared":5677,"Ġcompelled":5678,"Ġconsol":5679,"Ġflag":5680,"ailed":5681,"Ġreluct":5682,"Ġconstantly":5683,"ucharov":5684,"Ġengagement":5685,"Ġstream":5686,"Ġpatches":5687,"Ġforearm":5688,"Ġdepos":5689,"Ġdense":5690,"Ġsilk":5691,"Ġcaut":5692,"Ġlimit":5693,"Ġsinuses":5694,"Ġconviction":5695,"Ġorderly":5696,"Ġtends":5697,"Ġsecured":5698,"Ġcalifornia":5699,"Ġfootman":5700,"Ġillness":5701,"Ġvascular":5702,"Ġdispute":5703,"Ġdouble":5704,"Ġdifficulties":5705,"Ġhundreds":5706,"Ġregimental":5707,"Ġstronger":5708,"Ġstarting":5709,"Ġimagined":5710,"Ġpurposes":5711,"Ġprogressive":5712,"Ġprivile":5713,"Ġmanufacture":5714,"Ġprovince":5715,"Ġmerchant":5716,"Ġbullet":5717,"Ġrevealed":5718,"organ":5719,"ucharovo":5720,"cked":5721,"fuel":5722,"gage":5723,"ipt":5724,"kin":5725,"med":5726,"oform":5727,"rant":5728,"rative":5729,"Ġtut":5730,"Ġber":5731,"Ġborder":5732,"Ġcards":5733,"Ġhip":5734,"Ġpub":5735,"Ġpfuel":5736,"Ġming":5737,"inging":5738,"Ġdors":5739,"Ġgain":5740,"ald":5741,"Ġrain":5742,"Ġrates":5743,"Ġconc":5744,"Ġconqu":5745,"Ġneut":5746,"aging":5747,"Ġpron":5748,"Ġwheels":5749,"ateg":5750,"igation":5751,"Ġabund":5752,"Ġdoors":5753,"Ġmanagement":5754,"acement":5755,"Ġworthy":5756,"Ġcontrib":5757,"Ġblushed":5758,"Ġindian":5759,"Ġindians":5760,"Ġimpress":5761,"Ġusing":5762,"Ġhappening":5763,"Ġpeter":5764,"culated":5765,"Ġdonations":5766,"Ġwrink":5767,"Ġchem":5768,"Ġprovide":5769,"Ġapproved":5770,"Ġsecre":5771,"Ġ176":5772,"Ġruined":5773,"Ġtennessee":5774,"Ġrapidity":5775,"Ġrepeating":5776,"Ġeastern":5777,"Ġdriving":5778,"Ġhistoric":5779,"Ġfellows":5780,"Ġnorthwest":5781,"ipping":5782,"Ġbringing":5783,"Ġprincip":5784,"Ġmarkets":5785,"Ġrestrain":5786,"Ġconfederation":5787,"agraph":5788,"Ġgrief":5789,"Ġbeaten":5790,"Ġwithdraw":5791,"Ġcheek":5792,"Ġcheeks":5793,"Ġbogucharovo":5794,"Ġinherited":5795,"igrants":5796,"Ġloyal":5797,"Ġtranqu":5798,"Ġtobacco":5799,"lo":5800,"sarcoma":5801,"tiary":5802,"uary":5803,"vard":5804,"Ġing":5805,"inous":5806,"rees":5807,"Ġbread":5808,"Ġpond":5809,"Ġlot":5810,"Ġlack":5811,"Ġlav":5812,"Ġgather":5813,"ada":5814,"Ġrear":5815,"Ġanal":5816,"Ġangel":5817,"ilies":5818,"Ġchond":5819,"Ġprohib":5820,"ourse":5821,"Ġinduced":5822,"ints":5823,"Ġimpat":5824,"Ġyours":5825,"Ġbegins":5826,"Ġstranger":5827,"Ġ200":5828,"Ġregen":5829,"Ġheadquarters":5830,"Ġdistrict":5831,"Ġpolish":5832,"Ġdifference":5833,"Ġcourts":5834,"Ġpetition":5835,"Ġcontinental":5836,"Ġinstantly":5837,"Ġservant":5838,"Ġguil":5839,"Ġinspect":5840,"Ġcontinuous":5841,"Ġartific":5842,"Ġpoison":5843,"Ġmission":5844,"Ġsenator":5845,"Ġgrowths":5846,"Ġbrothers":5847,"Ġsummon":5848,"Ġinquired":5849,"Ġbenefit":5850,"Ġeighte":5851,"Ġbacterial":5852,"Ġattempts":5853,"Ġloudly":5854,"Ġnodded":5855,".)]":5856,"Ġinternational":5857,"Ġgranted":5858,"Ġmessage":5859,"Ġresistance":5860,"Ġchoice":5861,"Ġdefeat":5862,"Ġfortunes":5863,"Ġdollars":5864,"Ġduke":5865,"Ġcomrades":5866,"Ġnecrosis":5867,"Ġembraced":5868,"Ġbaby":5869,"aited":5870,"fr":5871,"five":5872,"fast":5873,"rim":5874,"six":5875,"ture":5876,"Ġtetan":5877,"Ġah":5878,"only":5879,"Ġbay":5880,"Ġbore":5881,"Ġfet":5882,"Ġpin":5883,"Ġpil":5884,"Ġmag":5885,"Ġdare":5886,"Ġdancing":5887,"lly":5888,"Ġgained":5889,"seen":5890,"Ġstom":5891,"ette":5892,"Ġrace":5893,"Ġrank":5894,"Ġrhod":5895,"aments":5896,"acher":5897,"oop":5898,"Ġprice":5899,"Ġprices":5900,"Ġshell":5901,"Ġfeb":5902,"ieur":5903,"Ġcoast":5904,"Ġenergy":5905,"Ġsomewhat":5906,"Ġblind":5907,"Ġcompet":5908,"Ġseek":5909,"onsieur":5910,"Ġolder":5911,"Ġmustache":5912,"Ġspecially":5913,"Ġpeoples":5914,"Ġincome":5915,"Ġincision":5916,"Ġconfidence":5917,"Ġsupposed":5918,"Ġrelated":5919,"Ġadvancing":5920,"Ġtext":5921,"Ġinstinct":5922,"Ġphili":5923,"Ġmonroe":5924,"Ġproduction":5925,"Ġfamilies":5926,"Ġdolgor":5927,"Ġdiscovered":5928,"Ġbrief":5929,"Ġexcuse":5930,"Ġfederation":5931,"Ġports":5932,"Ġbedroom":5933,"Ġepidermis":5934,"Ġroads":5935,"Ġdoctors":5936,"Ġsenators":5937,"Ġabscesses":5938,"Ġsacrifice":5939,"Ġremarks":5940,"Ġjudge":5941,"Ġ1860":5942,"Ġoblit":5943,"Ġinflammatory":5944,"Ġprovincial":5945,"Ġanxiety":5946,"syph":5947,"ococcus":5948,"Ġthrowing":5949,"Ġcouple":5950,"Ġexactly":5951,"Ġinstructions":5952,"Ġproclamation":5953,"Ġbattalion":5954,"Ġabdominal":5955,"Ġthoroughly":5956,"Ġexhausted":5957,"Ġhunter":5958,"Ġtwelve":5959,"Ġphilipp":5960,"Ġdolgorukov":5961,"cal":5962,"faced":5963,"ls":5964,"lier":5965,"Ġtour":5966,"Ġtail":5967,"Ġapt":5968,"Ġbas":5969,"Ġbath":5970,"Ġdess":5971,"Ġdaily":5972,"Ġease":5973,"lection":5974,"Ġreward":5975,"rother":5976,"sey":5977,"urance":5978,"Ġil":5979,"Ġfrag":5980,"oles":5981,"Ġbutt":5982,"Ġweather":5983,"Ġunus":5984,"Ġuneas":5985,"Ġdisorder":5986,"Ġclav":5987,"Ġunderwood":5988,"Ġemotion":5989,"Ġinfect":5990,"Ġinfinite":5991,"Ġglit":5992,"bert":5993,"Ġscal":5994,"Ġscale":5995,"ensions":5996,"aware":5997,"Ġreference":5998,"Ġinvited":5999,"Ġelected":6000,"Ġdrain":6001,"Ġphotograph":6002,"Ġirres":6003,"Ġparagraph":6004,"Ġseverity":6005,"Ġtransform":6006,"Ġdevoted":6007,"Ġdispos":6008,"Ġ60":6009,"Ġmilitia":6010,"Ġsnuff":6011,"Ġridic":6012,"Ġprevented":6013,"Ġmedull":6014,"Ġjudic":6015,"Ġforests":6016,"Ġcapture":6017,"Ġconfeder":6018,"Ġmanifestations":6019,"Ġbottle":6020,"Ġclouds":6021,"Ġfeeble":6022,"Ġperfectly":6023,"Ġpreparations":6024,"Ġprosper":6025,"Ġcooper":6026,"Ġmedium":6027,"Ġvalet":6028,"Ġadhesions":6029,"bre":6030,"cont":6031,"fib":6032,"fare":6033,"vis":6034,"Ġahead":6035,"Ġcup":6036,"Ġcatch":6037,"itating":6038,"Ġdun":6039,"arth":6040,"arthy":6041,"Ġlosing":6042,"omte":6043,"icose":6044,"Ġgle":6045,"Ġreign":6046,"urity":6047,"Ġstages":6048,"Ġstories":6049,"verted":6050,"amb":6051,"Ġkrem":6052,"Ġchina":6053,"akche":6054,"Ġjune":6055,"Ġwel":6056,"ĠĠĠĠĠĠĠĠĠĠĠĠĠ":6057,"Ġfreem":6058,"such":6059,"Ġcloth":6060,"Ġapply":6061,"cler":6062,"Ġtwit":6063,"Ġcarp":6064,"Ġretired":6065,"Ġfriendship":6066,"Ġinside":6067,"prin":6068,"nothing":6069,"Ġhumerus":6070,"Ġneeds":6071,"apsed":6072,"Ġbalance":6073,"Ġmadison":6074,"Ġcareful":6075,"Ġdrop":6076,"Ġhurry":6077,"Ġprepare":6078,"Ġsurroundings":6079,"Ġvoters":6080,"aneously":6081,"Ġerr":6082,"Ġsterilised":6083,"Ġalexe":6084,"Ġtouching":6085,"Ġmoon":6086,"Ġincluded":6087,"Ġfavorite":6088,"Ġcombined":6089,"Ġcombination":6090,"Ġprayer":6091,"Ġsharply":6092,"Ġdeformans":6093,"Ġphilos":6094,"Ġvicomte":6095,"Ġbreathing":6096,"Ġinquiry":6097,"Ġabsorption":6098,"Ġmounted":6099,"Ġbullets":6100,"Ġdiminished":6101,"Ġstructures":6102,"Ġfrowned":6103,"Ġpositive":6104,"Ġicon":6105,"looking":6106,"Ġparents":6107,"tuber":6108,"Ġseptember":6109,"Ġsurgeon":6110,"Ġalcohol":6111,"Ġprogram":6112,"akcheev":6113,"+--------":6114,"28":6115,"awn":6116,"di":6117,"his":6118,"hur":6119,"lim":6120,"phe":6121,"pres":6122,"sm":6123,"tw":6124,"vas":6125,"ville":6126,"Ġsere":6127,"Ġske":6128,"Ġsons":6129,"Ġcow":6130,"Ġcattle":6131,"Ġmic":6132,"Ġmonsieur":6133,"Ġthigh":6134,"Ġloving":6135,"Ġren":6136,"Ġrender":6137,"ims":6138,"Ġwhip":6139,"veland":6140,"Ġruc":6141,"olent":6142,"Ġseated":6143,"Ġdealing":6144,"Ġvil":6145,"Ġaltered":6146,"Ġarakcheev":6147,"Ġjan":6148,"Ġjose":6149,"Ġrole":6150,"Ġdiscl":6151,"Ġnob":6152,"Ġemph":6153,"Ġliver":6154,"Ġremoving":6155,"Ġgrate":6156,"Ġgrass":6157,"Ġprec":6158,"Ġthanks":6159,"Ġcarriages":6160,"Ġcolor":6161,"Ġ184":6162,"Ġcourage":6163,"Ġrefuse":6164,"ictions":6165,"Ġdefect":6166,"Ġinvasion":6167,"Ġserous":6168,"ifications":6169,"Ġpains":6170,"Ġinsign":6171,"Ġredoub":6172,"Ġrecover":6173,"Ġsentiment":6174,"Ġincreases":6175,"Ġorganization":6176,"Ġfavored":6177,"Ġsincere":6178,"Ġsoftly":6179,"Ġwatching":6180,"Ġmeanwhile":6181,"Ġassociation":6182,"Ġspirits":6183,"Ġpenet":6184,"Ġtrif":6185,"Ġrequest":6186,"Ġeru":6187,"Ġgangl":6188,"Ġrespectfully":6189,"Ġfifth":6190,"Ġquarrel":6191,"Ġradical":6192,"Ġsaddle":6193,"Ġsolid":6194,"Ġterritories":6195,"Ġliberal":6196,"Ġexecution":6197,"Ġmanufactures":6198,"Ġprovinces":6199,"Ġsternly":6200,"Ġwishes":6201,"Ġstatement":6202,"Ġintellig":6203,"Ġbottom":6204,"Ġspecific":6205,"Ġiodoform":6206,"Ġjersey":6207,"Ġhanging":6208,"Ġconservative":6209,"Ġadventure":6210,"Ġexcessive":6211,"Ġdisturbance":6212,"Ġsurrender":6213,"Ġdiscover":6214,"Ġmusket":6215,"Ġexperiment":6216,"standing":6217,"Ġguilty":6218,"Ġstomach":6219,"Ġserene":6220,"Ġrucast":6221,"?...\"":6222,"lord":6223,"look":6224,"mary":6225,"rushka":6226,"Ġtired":6227,"Ġowing":6228,"Ġpou":6229,"Ġpad":6230,"Ġlamp":6231,"Ġnomin":6232,"Ġbeard":6233,"Ġretained":6234,"oting":6235,"Ġisn":6236,"Ġfranc":6237,"Ġshr":6238,"Ġshone":6239,"acic":6240,"Ġexisted":6241,"Ġsaber":6242,"Ġpride":6243,"Ġchanc":6244,"estead":6245,"Ġareas":6246,"Ġwey":6247,"arted":6248,"Ġuns":6249,"Ġknoll":6250,"Ġworst":6251,"Ġcler":6252,"Ġtrap":6253,"Ġwarfare":6254,"Ġsche":6255,"Ġaccur":6256,"Ġletting":6257,"Ġretire":6258,"Ġyounger":6259,"Ġ58":6260,"Ġrestless":6261,"oubted":6262,"Ġreduced":6263,"Ġconven":6264,"Ġchildhood":6265,"Ġfactor":6266,"Ġimmigrants":6267,"Ġoperative":6268,"Ġlightly":6269,"Ġmercy":6270,"Ġdelir":6271,"Ġillust":6272,"Ġchanging":6273,"Ġhopes":6274,"Ġreasoning":6275,"Ġstrongly":6276,"Ġcivilization":6277,"Ġrepresented":6278,"Ġlocalised":6279,"Ġannounce":6280,"ricial":6281,"inois":6282,"Ġpowder":6283,"Ġverte":6284,"Ġfortune":6285,"Ġaffecting":6286,"Ġsensibility":6287,"Ġsatisfactory":6288,"Ġcommunication":6289,"Ġdistributed":6290,"Ġassembly":6291,"Ġsurgery":6292,"Ġsobs":6293,"Ġhomestead":6294,"Ġsteadily":6295,"Ġvitality":6296,"Ġresponsibility":6297,"Ġliterary":6298,"Ġspectacles":6299,"Ġenthusiasm":6300,"Ġintellectual":6301,"Ġsuperior":6302,"Ġsequestrum":6303,"arynx":6304,"Ġincomprehensible":6305,"Ġcousin":6306,"Ġneutral":6307,"Ġalexeevich":6308,"Ġjoseph":6309,"Ġinsignific":6310,"god":6311,"iation":6312,"ioma":6313,"kaya":6314,"minded":6315,"roma":6316,"Ġ...":6317,"Ġtied":6318,"Ġtension":6319,"Ġaet":6320,"Ġoak":6321,"Ġbul":6322,"Ġbind":6323,"Ġbasis":6324,"isk":6325,"Ġfires":6326,"Ġpace":6327,"Ġpause":6328,"Ġpair":6329,"Ġpacked":6330,"Ġdar":6331,"Ġdance":6332,"ancial":6333,"Ġheal":6334,"iced":6335,"stit":6336,"step":6337,"Ġanne":6338,"chial":6339,"herkov":6340,"ulitis":6341,"rill":6342,"Ġshining":6343,"ppy":6344,"ago":6345,"ums":6346,"Ġunha":6347,"Ġamaz":6348,"Ġknife":6349,"these":6350,"Ġworked":6351,"Ġanywhere":6352,"Ġremaining":6353,"Ġbru":6354,"arev":6355,"Ġfled":6356,"Ġwarrant":6357,"ervical":6358,"Ġsurv":6359,"Ġbetray":6360,"Ġconfess":6361,"Ġsuppur":6362,"Ġreflected":6363,"Ġrestored":6364,"psh":6365,"Ġcheck":6366,"Ġapproach":6367,"Ġneedle":6368,"Ġcollected":6369,"Ġillinois":6370,"Ġdirections":6371,"Ġmadame":6372,"Ġsenseless":6373,"semble":6374,"general":6375,"Ġzherkov":6376,"Ġanimals":6377,"Ġcele":6378,"Ġexecuted":6379,"Ġpalm":6380,"Ġeyeb":6381,"Ġadopt":6382,"Ġneighbor":6383,"Ġhunts":6384,"Ġnaval":6385,"Ġacquaintances":6386,"Ġstructure":6387,"Ġclaims":6388,"Ġcovering":6389,"Ġpersistent":6390,"Ġestablishment":6391,"Ġnaev":6392,"Ġvigorous":6393,"Ġdavout":6394,"Ġcriticism":6395,"Ġsergeant":6396,"Ġrigid":6397,"Ġtetanus":6398,"syphilitic":6399,"Ġjanuary":6400,"aul":6401,"bits":6402,"called":6403,"lor":6404,"lov":6405,"ris":6406,"ran":6407,"rical":6408,"rating":6409,"yn":6410,"yle":6411,"Ġtree":6412,"Ġtriv":6413,"Ġoil":6414,"Ġwra":6415,"Ġwip":6416,"ateral":6417,"atched":6418,"Ġcervical":6419,"Ġfly":6420,"Ġfoc":6421,"Ġpicked":6422,"Ġdre":6423,"anim":6424,"ashing":6425,"Ġnin":6426,"Ġnour":6427,"Ġger":6428,"vember":6429,"Ġstick":6430,"etic":6431,"iring":6432,"Ġrhe":6433,"Ġviii":6434,"Ġaltern":6435,"Ġjuly":6436,"Ġrolled":6437,"ivered":6438,"Ġintra":6439,"Ġabn":6440,"Ġmane":6441,"Ġgover":6442,"Ġcoats":6443,"Ġnovember":6444,"theless":6445,"Ġclos":6446,"Ġcommiss":6447,"Ġnative":6448,"Ġnewly":6449,"Ġinfilt":6450,"Ġattrib":6451,"Ġmarg":6452,"Ġactually":6453,"ruary":6454,"Ġended":6455,"Ġcharles":6456,"Ġcapacity":6457,"Ġcleveland":6458,"Ġnevertheless":6459,"Ġdrunk":6460,"Ġbelonged":6461,"Ġsigned":6462,"Ġtube":6463,"Ġdoesn":6464,"Ġcalc":6465,"Ġsteward":6466,"factor":6467,"Ġprotest":6468,"Ġtraumatic":6469,"Ġenemies":6470,"Ġmaintained":6471,"Ġdoubts":6472,"Ġhistorian":6473,"Ġcareer":6474,"Ġcellulitis":6475,"Ġfederalists":6476,"Ġelectric":6477,"Ġrepresentative":6478,"aphyl":6479,"Ġpayment":6480,"Ġbaggage":6481,"Ġsalt":6482,"Ġobservation":6483,"Ġgrounds":6484,"Ġstrike":6485,"Ġmistake":6486,"Ġfailure":6487,"Ġpushing":6488,"Ġharness":6489,"Ġsupported":6490,"Ġligature":6491,"Ġplainly":6492,"Ġintervals":6493,"Ġappointment":6494,"Ġstayed":6495,"Ġdetermine":6496,"Ġsignificant":6497,"Ġequality":6498,"Ġmanufacturing":6499,"Ġbirth":6500,"Ġneighbour":6501,"Ġadvantages":6502,"Ġexerc":6503,"donald":6504,"Ġwaist":6505,"Ġleaned":6506,"Ġdelighted":6507,"Ġvenous":6508,"Ġeagerly":6509,"Ġdecember":6510,"Ġilyin":6511,"Ġaccomplished":6512,"Ġcommittee":6513,"Ġprussia":6514,"Ġquantity":6515,"Ġrevenue":6516,"Ġproposal":6517,"Ġtitle":6518,"Ġmystery":6519,"Ġperipheral":6520,"Ġartificial":6521,"Ġfebruary":6522,"Ġweyrother":6523,"Ġtrivial":6524,"57":6525,"aise":6526,"every":6527,"ham":6528,"houn":6529,"pation":6530,"rade":6531,"Ġta":6532,"inf":6533,"Ġwants":6534,"Ġpaces":6535,"Ġmap":6536,"Ġmental":6537,"Ġinaug":6538,"Ġdir":6539,"Ġthou":6540,"Ġlac":6541,"Ġgar":6542,"Ġgaily":6543,"alf":6544,"ether":6545,"Ġrange":6546,"Ġhabits":6547,"Ġseas":6548,"Ġvivid":6549,"Ġshy":6550,"Ġshrug":6551,"Ġkid":6552,"three":6553,"emic":6554,"Ġchamber":6555,"umed":6556,"umerable":6557,"Ġwheat":6558,"Ġdish":6559,"Ġadvert":6560,"Ġcoff":6561,"Ġnoise":6562,"odore":6563,"Ġglo":6564,"Ġgloom":6565,"Ġcompression":6566,"Ġconsisted":6567,"Ġflat":6568,"Ġregions":6569,"Ġentertain":6570,"Ġmaryland":6571,"Ġsetting":6572,"Ġ54":6573,"Ġborne":6574,"upus":6575,"Ġtertiary":6576,"Ġbattlefield":6577,"Ġboard":6578,"Ġangle":6579,"Ġsingular":6580,"Ġnamely":6581,"Ġhoped":6582,"Ġopinions":6583,"Ġgrace":6584,"Ġmills":6585,"Ġvillages":6586,"Ġaccounts":6587,"Ġtrial":6588,"Ġjoyfully":6589,"Ġissues":6590,"Ġkissing":6591,"Ġantise":6592,"Ġadjutants":6593,"Ġcease":6594,"Ġinnumerable":6595,"Ġundoubted":6596,"Ġconcerning":6597,"Ġlearn":6598,"Ġindef":6599,"ertion":6600,"Ġmurm":6601,"Ġencoun":6602,"Ġinterview":6603,"natured":6604,"Ġnodules":6605,"Ġsending":6606,"Ġmaids":6607,"Ġbursae":6608,"Ġobviously":6609,"Ġthreatened":6610,"Ġdogs":6611,"Ġratification":6612,"Ġnavy":6613,"Ġepithelioma":6614,"Ġwithdrawn":6615,"Ġossifying":6616,"Ġshoes":6617,"Ġgrafting":6618,"Ġwagons":6619,"Ġswiftly":6620,"Ġarguments":6621,"Ġsuspic":6622,"Ġcicatricial":6623,"Ġtreasury":6624,"Ġpulsation":6625,"thirds":6626,"Ġlestrade":6627,"Ġwedding":6628,"Ġlicense":6629,"Ġlymphatics":6630,"ckinley":6631,"Ġunnatural":6632,"Ġlavrushka":6633,"hurrah":6634,"Ġrucastle":6635,"\";":6636,"24":6637,"30":6638,"60":6639,"bra":6640,"house":6641,"iasis":6642,"sing":6643,"Ġtast":6644,"hem":6645,"Ġsuture":6646,"ishes":6647,"Ġfolk":6648,"Ġpick":6649,"Ġderm":6650,"Ġdrug":6651,"ari":6652,"anin":6653,"aska":6654,"Ġlun":6655,"Ġnamed":6656,"omical":6657,"icity":6658,"Ġgon":6659,"Ġbew":6660,"aden":6661,"Ġrect":6662,"ids":6663,"Ġonset":6664,"Ġstock":6665,"Ġili":6666,"alles":6667,"usions":6668,"Ġshop":6669,"Ġkuz":6670,"Ġexud":6671,"thank":6672,"Ġsail":6673,"Ġspaces":6674,"ounded":6675,"Ġleaves":6676,"Ġenvelop":6677,"keeper":6678,"assad":6679,"fty":6680,"Ġprecious":6681,"Ġwarning":6682,"Ġscrew":6683,"Ġoffices":6684,"Ġgoodness":6685,"Ġdefined":6686,"Ġpersu":6687,"Ġcontinent":6688,"even":6689,"Ġ57":6690,"Ġelement":6691,"Ġserving":6692,"Ġservices":6693,"Ġfreehold":6694,"Ġconstitutions":6695,"Ġanswering":6696,"Ġdiam":6697,"Ġworkers":6698,"Ġdetachment":6699,"Ġpersonally":6700,"Ġpapa":6701,"Ġcollar":6702,"Ġfootstep":6703,"Ġtrace":6704,"Ġdisposition":6705,"Ġsettlers":6706,"Ġemployees":6707,"Ġrealize":6708,"Ġcutaneous":6709,"Ġelections":6710,"Ġdebate":6711,"Ġspiritual":6712,"Ġcandle":6713,"Ġswept":6714,"occup":6715,"Ġdamaged":6716,"Ġbells":6717,"Ġstretching":6718,"Ġaxis":6719,"board":6720,"Ġarchive":6721,"Ġspoon":6722,"Ġobligations":6723,"Ġdistinctly":6724,"Ġalike":6725,"Ġscreamed":6726,"Ġambassad":6727,"Ġculture":6728,"Ġmachine":6729,"Ġmasters":6730,"Ġmccarthy":6731,"Ġphenomena":6732,"Ġmysterious":6733,"Ġsafety":6734,"Ġdessalles":6735,"tubercul":6736,"Ġdarling":6737,"Ġfocus":6738,"Ġdirty":6739,"59":6740,"aus":6741,"aired":6742,"dered":6743,"hl":6744,"iro":6745,"know":6746,"nest":6747,"oked":6748,"pit":6749,"range":6750,"ww":6751,"zed":6752,"Ġaven":6753,"inking":6754,"Ġbund":6755,"isement":6756,"Ġhounds":6757,"enger":6758,"Ġfired":6759,"Ġpaced":6760,"Ġmart":6761,"Ġmckinley":6762,"Ġdou":6763,"Ġtoe":6764,"icate":6765,"ads":6766,"Ġwhigs":6767,"ota":6768,"Ġassured":6769,"Ġstoop":6770,"Ġrick":6771,"Ġhare":6772,"olov":6773,"aping":6774,"istocr":6775,"Ġjoke":6776,"Ġweap":6777,"Ġintense":6778,"Ġleather":6779,"Ġunite":6780,"ieved":6781,"Ġmankind":6782,"Ġwhenever":6783,"ĠĠĠĠĠĠĠĠĠĠ":6784,"Ġcoin":6785,"Ġnovel":6786,"key":6787,"cession":6788,"Ġapplying":6789,"Ġcontains":6790,"Ġoffended":6791,"aven":6792,"clot":6793,"angers":6794,"Ġimposed":6795,"Ġattracted":6796,"Ġflor":6797,"Ġregiments":6798,"text":6799,"Ġdesign":6800,"Ġacted":6801,"neum":6802,"Ġacres":6803,"issue":6804,"Ġincon":6805,"Ġsupple":6806,"Ġcorrid":6807,"Ġreconst":6808,"Ġrestoration":6809,"Ġconsideration":6810,"Ġcale":6811,"Ġvaricose":6812,"Ġcircles":6813,"Ġproducing":6814,"Ġbony":6815,"Ġburden":6816,"burgh":6817,"Ġprotests":6818,"Ġportra":6819,"retched":6820,"Ġdevised":6821,"Ġarterial":6822,"Ġobserve":6823,"Ġinvolve":6824,"Ġballroom":6825,"Ġgrav":6826,"grat":6827,"Ġpaying":6828,"Ġdisappoint":6829,"Ġassumes":6830,"Ġmedic":6831,"Ġgalloping":6832,"Ġwooden":6833,"Ġcounter":6834,"Ġbreakfast":6835,"after":6836,"Ġdisturbed":6837,"Ġhunting":6838,"Ġmexican":6839,"Ġankle":6840,"Ġdismount":6841,"Ġboldly":6842,"Ġpreferred":6843,"Ġsteady":6844,"Ġuniversal":6845,"Ġexchange":6846,"Ġexceptional":6847,"Ġconfirmed":6848,"Ġtimidly":6849,"Ġcollege":6850,"Ġanteroom":6851,"Ġindifferent":6852,"lymph":6853,"Ġunfortunate":6854,"Ġfrancis":6855,"Ġeyebrows":6856,"Ġgloomy":6857,"aid":6858,"bon":6859,"more":6860,"sl":6861,"ued":6862,"uation":6863,"var":6864,"Ġtaft":6865,"Ġase":6866,"Ġsank":6867,"Ġwing":6868,"iture":6869,"enka":6870,"Ġfier":6871,"Ġflying":6872,"Ġpuff":6873,"Ġdared":6874,"orious":6875,"Ġlock":6876,"Ġnut":6877,"Ġhem":6878,"leton":6879,"Ġgay":6880,"Ġgently":6881,"Ġbearing":6882,"Ġrent":6883,"Ġreaches":6884,"otid":6885,"sec":6886,"urd":6887,"Ġrom":6888,"Ġrust":6889,"Ġrush":6890,"Ġcongrat":6891,"Ġhaven":6892,"Ġshade":6893,"Ġintest":6894,"ffic":6895,"ĠĠĠĠĠĠĠĠĠĠĠĠ":6896,"Ġnois":6897,"Ġnobody":6898,"ocks":6899,"Ġoutcome":6900,"Ġplump":6901,"ostosis":6902,"Ġclosing":6903,"Ġformal":6904,"irect":6905,"Ġconsci":6906,"Ġpreserve":6907,"Ġseeking":6908,"Ġscand":6909,"Ġstrateg":6910,"ipel":6911,"Ġoccl":6912,"necess":6913,"Ġsupplied":6914,"Ġextending":6915,"Ġrefr":6916,"Ġdefend":6917,"Ġemperors":6918,"uzz":6919,"Ġcommands":6920,"Ġrounded":6921,"Ġinsult":6922,"Ġveh":6923,"noon":6924,"Ġrecoll":6925,"Ġtransm":6926,"Ġcalhoun":6927,"Ġslept":6928,"Ġawaited":6929,"Ġdivine":6930,"Ġrecognizing":6931,"Ġprocesses":6932,"Ġperiods":6933,"fortune":6934,"Ġfarms":6935,"Ġsuperv":6936,"orrhoe":6937,"Ġexamining":6938,"Ġtormented":6939,"Ġmurder":6940,"regon":6941,"Ġlifting":6942,"Ġfemoral":6943,"Ġstaying":6944,"trad":6945,"Ġmarshall":6946,"Ġbird":6947,"Ġaxilla":6948,"Ġdepartment":6949,"Ġgroin":6950,"Ġvanished":6951,"Ġthreatening":6952,"Ġenjoyed":6953,"Ġmotionless":6954,"Ġhomes":6955,"Ġleucocytosis":6956,"cript":6957,"Ġalien":6958,"Ġmechanical":6959,"Ġmelanch":6960,"Ġdeprived":6961,"ructive":6962,"Ġepiphys":6963,"Ġinstrument":6964,"growth":6965,"Ġrejected":6966,"Ġregeneration":6967,"Ġsummoned":6968,"Ġcelebr":6969,"Ġshrugged":6970,"Ġindefinite":6971,"tuberculous":6972,"Ġcorridor":6973,"21":6974,"bro":6975,"back":6976,"dr":6977,"equ":6978,"gent":6979,"pus":6980,"sen":6981,"tle":6982,"wy":6983,"yasha":6984,"Ġerm":6985,"Ġoregon":6986,"Ġsang":6987,"Ġwise":6988,"erget":6989,"erring":6990,"atus":6991,"atosis":6992,"itary":6993,"Ġpie":6994,"Ġduel":6995,"icable":6996,"icking":6997,"ications":6998,"lets":6999,"Ġgates":7000,"Ġrendered":7001,"stream":7002,"othe":7003,"olved":7004,"Ġsuit":7005,"rified":7006,"Ġchose":7007,"abs":7008,"Ġspend":7009,"Ġspine":7010,"Ġspinal":7011,"oundrel":7012,"open":7013,"Ġdozen":7014,"Ġdisci":7015,"Ġcoinc":7016,"Ġenerget":7017,"Ġclut":7018,"Ġpartner":7019,"Ġcanals":7020,"Ġemanci":7021,"fts":7022,"Ġinflic":7023,"Ġcompressed":7024,"Ġexpedition":7025,"Ġbegged":7026,"Ġscars":7027,"Ġstrain":7028,"orders":7029,"Ġdesigned":7030,"Ġmetal":7031,"Ġconfident":7032,"ogether":7033,"ysipel":7034,"Ġpossessed":7035,"shaped":7036,"Ġboot":7037,"Ġtrot":7038,"Ġdetached":7039,"gnosis":7040,"Ġdressings":7041,"Ġlads":7042,"Ġcrowds":7043,"apping":7044,"Ġlymphang":7045,"Ġfibros":7046,"Ġdeclaring":7047,"Ġfrequency":7048,"Ġdrift":7049,"Ġhurt":7050,"conf":7051,"Ġdestroying":7052,"Ġindication":7053,"Ġsensitive":7054,"Ġtaxation":7055,"Ġjudges":7056,"Ġrespond":7057,"Ġinclude":7058,"Ġthickened":7059,"headed":7060,"Ġuniforms":7061,"ogram":7062,"Ġchurches":7063,"Ġtrades":7064,"Ġinjected":7065,"guard":7066,"Ġdistinguish":7067,"Ġdefinitely":7068,"Ġmaterials":7069,"Ġfractures":7070,"Ġtopics":7071,"Ġxvi":7072,"Ġcorporation":7073,"Ġossification":7074,"Ġpacking":7075,"Ġivanovich":7076,"Ġdisappearance":7077,"Ġresolved":7078,"Ġgumma":7079,"Ġinstitutions":7080,"Ġargument":7081,"Ġstiffness":7082,"Ġavailable":7083,"Ġfulfill":7084,"Ġbending":7085,"Ġenacted":7086,"Ġmercury":7087,"Ġsucceeded":7088,"Ġscotch":7089,"Ġborzois":7090,"Ġdissatisfied":7091,"Ġphrase":7092,"Ġsearching":7093,"Ġchemical":7094,"Ġglittering":7095,"two":7096,"Ġskeleton":7097,"Ġunhappy":7098,"Ġcloser":7099,"Ġmargins":7100,"Ġreconstruction":7101,"boy":7102,"eav":7103,"iate":7104,"kes":7105,"mas":7106,"may":7107,"oons":7108,"post":7109,"ties":7110,"tissue":7111,"whe":7112,"were":7113,"Ġton":7114,"Ġtide":7115,"Ġau":7116,"Ġotrad":7117,"Ġwand":7118,"ato":7119,"Ġbure":7120,"Ġpup":7121,"Ġmont":7122,"Ġincess":7123,"Ġeve":7124,"Ġbeast":7125,"str":7126,"state":7127,"lyanin":7128,"Ġstit":7129,"Ġyards":7130,"Ġsell":7131,"usal":7132,"Ġsund":7133,"Ġvii":7134,"rier":7135,"Ġkal":7136,"Ġexhib":7137,"ersed":7138,"Ġneuro":7139,"Ġchin":7140,"abama":7141,"Ġsheep":7142,"Ġadherent":7143,"unning":7144,"sule":7145,"Ġclient":7146,"Ġtrack":7147,"Ġtrunks":7148,"Ġsmart":7149,"Ġafric":7150,"clav":7151,"Ġbrid":7152,"anging":7153,"phant":7154,"Ġexpense":7155,"uces":7156,"Ġgeneration":7157,"Ġstatesmen":7158,"ructed":7159,"Ġendeav":7160,"Ġdiseased":7161,"Ġcaps":7162,"Ġcapsule":7163,"Ġgovernments":7164,"Ġabsurd":7165,"Ġeffusion":7166,"Ġearlier":7167,"Ġbelief":7168,"Ġelson":7169,"Ġfatherland":7170,"Ġsimult":7171,"Ġministers":7172,"iliation":7173,"Ġreturns":7174,"Ġcris":7175,"Ġdivers":7176,"Ġsooner":7177,"Ġproviding":7178,"Ġoperating":7179,"Ġpresidential":7180,"Ġrecognition":7181,"Ġcutting":7182,"Ġridden":7183,"Ġaffects":7184,"Ġlowered":7185,"Ġjudgment":7186,"Ġpavl":7187,"Ġlearning":7188,"Ġpalace":7189,"Ġbills":7190,"Ġarrangement":7191,"Ġeventually":7192,"Ġbleed":7193,"natasha":7194,"Ġmisfortune":7195,"Ġconfederate":7196,"box":7197,"Ġinquiringly":7198,"Ġdiplomacy":7199,"Ġtroubles":7200,"Ġislands":7201,"Ġconceal":7202,"ococci":7203,"Ġdragged":7204,"Ġsubstit":7205,"Ġpursued":7206,"Ġvarying":7207,"Ġreligion":7208,"Ġelderly":7209,"Ġitalian":7210,"Ġthrombosis":7211,"Ġnegotiations":7212,"Ġnullification":7213,"Ġdislocation":7214,"Ġvaluable":7215,"Ġaltogether":7216,"Ġtotal":7217,"Ġpioneers":7218,"Ġcontroversy":7219,"Ġpilgr":7220,"Ġirresist":7221,"clerosis":7222,"president":7223,"Ġredoubt":7224,"Ġwrapped":7225,"Ġportrait":7226,"necessary":7227,"ysipelas":7228,"Ġotradnoe":7229,"29":7230,"cop":7231,"count":7232,"dent":7233,"did":7234,"dear":7235,"fo":7236,"low":7237,"liness":7238,"mus":7239,"pse":7240,"ras":7241,"rary":7242,"wel":7243,"za":7244,"Ġvel":7245,"Ġtones":7246,"Ġaort":7247,"Ġsite":7248,"ref":7249,"reated":7250,"Ġbrows":7251,"isans":7252,"Ġpoured":7253,"Ġmigration":7254,"Ġluck":7255,"Ġgross":7256,"Ġgoose":7257,"Ġresemble":7258,"utino":7259,"Ġrays":7260,"cha":7261,"chn":7262,"ova":7263,"Ġalle":7264,"umat":7265,"atell":7266,"Ġarrange":7267,"Ġaristocr":7268,"Ġspong":7269,"Ġspark":7270,"Ġ100":7271,"Ġdocum":7272,"Ġcoag":7273,"Ġreserve":7274,"Ġbrand":7275,"Ġbrisk":7276,"Ġovercome":7277,"Ġwilling":7278,"Ġafternoon":7279,"Ġgrat":7280,"Ġfluct":7281,"Ġscoundrel":7282,"Ġmarrying":7283,"atted":7284,"Ġowner":7285,"Ġincom":7286,"Ġcharter":7287,"Ġrecovered":7288,"Ġeffective":7289,"Ġesaul":7290,"Ġdepressed":7291,"Ġdenounced":7292,"Ġpurit":7293,"Ġpainted":7294,"Ġphal":7295,"Ġconvoy":7296,"Ġdecide":7297,"Ġsecuring":7298,"Ġpool":7299,"Ġexcision":7300,"Ġsounded":7301,"Ġdelaware":7302,"Ġstopping":7303,"Ġhyp":7304,"Ġannoy":7305,"ricted":7306,"Ġpractically":7307,"Ġcontrolled":7308,"Ġ***":7309,"Ġrubbed":7310,"Ġsituations":7311,"Ġconcern":7312,"Ġcombinations":7313,"Ġindividuals":7314,"Ġinterval":7315,"Ġlouder":7316,"Ġinevitably":7317,"Ġofficials":7318,"Ġfeverish":7319,"Ġsufficiently":7320,"Ġflexed":7321,"Ġobliged":7322,"Ġstationed":7323,"Ġdominion":7324,"Ġpassionate":7325,"Ġresponsible":7326,"Ġimprovement":7327,"Ġilya":7328,"Ġpriest":7329,"Ġtypes":7330,"Ġexceedingly":7331,"Ġrenewed":7332,"Ġapril":7333,"Ġdesperate":7334,"Ġappropriate":7335,"Ġattentively":7336,"Ġmingled":7337,"Ġprincipal":7338,"Ġrhode":7339,"Ġunusual":7340,"Ġdispositions":7341,"Ġvilna":7342,"Ġganglion":7343,"Ġconvenient":7344,"Ġmelancholy":7345,"Ġermolov":7346,"Ġcrisis":7347,"//":7348,"35":7349,"eight":7350,"mr":7351,"nal":7352,"oard":7353,"Ġtact":7354,"Ġther":7355,"Ġoath":7356,"Ġwax":7357,"Ġbry":7358,"isive":7359,"Ġcas":7360,"Ġped":7361,"Ġpall":7362,"Ġpuck":7363,"Ġmit":7364,"Ġdor":7365,"Ġduct":7366,"Ġthomas":7367,"Ġlung":7368,"Ġnames":7369,"ica":7370,"leans":7371,"Ġgroom":7372,"imm":7373,"ida":7374,"otic":7375,"second":7376,"Ġuhl":7377,"Ġstars":7378,"Ġstairs":7379,"Ġisol":7380,"Ġanth":7381,"Ġhaw":7382,"Ġorleans":7383,"Ġsemen":7384,"Ġseizing":7385,"ainted":7386,"Ġsuitable":7387,"rix":7388,"Ġsores":7389,"Ġbutton":7390,"emark":7391,"apt":7392,"Ġchamp":7393,"anted":7394,"Ġwheel":7395,"Ġproced":7396,"Ġproxim":7397,"nty":7398,"Ġsphere":7399,"Ġabst":7400,"Ġuncon":7401,"Ġdisag":7402,"Ġthereby":7403,"unction":7404,"aceous":7405,"Ġmyel":7406,"Ġench":7407,"Ġclin":7408,"Ġclim":7409,"Ġclergy":7410,"Ġcontent":7411,"Ġbless":7412,"Ġblushing":7413,"Ġattained":7414,"ucle":7415,"ancies":7416,"Ġaccused":7417,"Ġdeserted":7418,"Ġsubmit":7419,"Ġgovernors":7420,"Ġpolite":7421,"Ġconference":7422,"Ġengine":7423,"Ġadvis":7424,"eves":7425,"Ġlasted":7426,"Ġfeels":7427,"Ġexpressing":7428,"Ġcommanding":7429,"Ġpossibly":7430,"Ġdemands":7431,"Ġleads":7432,"Ġvarix":7433,"Ġhelpless":7434,"Ġmemories":7435,"Ġnecessarily":7436,"Ġthirteen":7437,"Ġraptur":7438,"Ġcollective":7439,"Ġfootmen":7440,"Ġvirus":7441,"Ġdevotion":7442,"Ġholder":7443,"Ġmilitiam":7444,"Ġhopeless":7445,"Ġsixth":7446,"Ġsixteen":7447,"Ġdining":7448,"genital":7449,"Ġerysipelas":7450,"Ġpreventing":7451,"Ġanimation":7452,"Ġmoderate":7453,"Ġbenefactor":7454,"Ġradi":7455,"Ġtarutino":7456,"Ġexclus":7457,"Ġsleeping":7458,"Ġpathological":7459,"Ġessence":7460,"Ġglasses":7461,"Ġauthorized":7462,"Ġforgetting":7463,"Ġdiscussion":7464,"Ġimperfect":7465,"Ġgroan":7466,"Ġbrave":7467,"Ġwealthy":7468,"Ġbacilli":7469,"Ġringing":7470,"Ġpictures":7471,"Ġuniversity":7472,"Ġpreparation":7473,"Ġprospect":7474,"Ġuncommon":7475,"Ġswaying":7476,"Ġdescended":7477,"Ġrecommended":7478,"Ġconcentrated":7479,"Ġzeal":7480,"Ġnewspapers":7481,"Ġchallenge":7482,"Ġcampfires":7483,"because":7484,"Ġceremon":7485,"Ġnobility":7486,"Ġfootsteps":7487,"Ġdiscipl":7488,"://":7489,"ae":7490,"ares":7491,"covered":7492,"dan":7493,"eem":7494,"koy":7495,"lest":7496,"lite":7497,"lial":7498,"rud":7499,"Ġol":7500,"Ġsill":7501,"onaparte":7502,"Ġbree":7503,"Ġcries":7504,"Ġhoo":7505,"Ġfacing":7506,"Ġpya":7507,"Ġdamp":7508,"Ġgout":7509,"Ġgoss":7510,"imately":7511,"iration":7512,"aminated":7513,"Ġseab":7514,"Ġseize":7515,"Ġselect":7516,"Ġshins":7517,"acute":7518,"Ġhers":7519,"Ġexcluded":7520,"Ġsaving":7521,"Ġchann":7522,"ante":7523,"Ġrosy":7524,"Ġintently":7525,"Ġunnecessary":7526,"iveness":7527,"Ġamuse":7528,"perhaps":7529,"sub":7530,"Ġtimok":7531,"ubets":7532,"Ġcommence":7533,"Ġoverth":7534,"haired":7535,"Ġcomplex":7536,"Ġexpans":7537,"Ġflung":7538,"Ġslipped":7539,"Ġlikewise":7540,"Ġregulation":7541,"Ġacknow":7542,"Ġstrept":7543,"Ġrefund":7544,"Ġrefusal":7545,"Ġrecently":7546,"Ġtelyanin":7547,"Ġgrows":7548,"Ġmaxim":7549,"Ġdepth":7550,"Ġkey":7551,"Ġmighty":7552,"Ġminor":7553,"aughters":7554,"Ġpaul":7555,"bral":7556,"------":7557,"Ġsleeves":7558,"Ġsteel":7559,"Ġappearances":7560,"Ġhearts":7561,"oids":7562,"Ġconsiderations":7563,"Ġsubjected":7564,"Ġdrops":7565,"Ġwaters":7566,"Ġstores":7567,"Ġreality":7568,"Ġsixty":7569,"bedded":7570,"Ġposterior":7571,"Ġlegislative":7572,"Ġassumption":7573,"Ġfortnight":7574,"Ġmedial":7575,"Ġhoarse":7576,"Ġtort":7577,"umbling":7578,"Ġescaped":7579,"Ġescapes":7580,"ivering":7581,"Ġlift":7582,"Ġhaste":7583,"Ġrisen":7584,"Ġjacket":7585,"Ġdependent":7586,"Ġintroduction":7587,"Ġviolent":7588,"Ġclasses":7589,"Ġsovereig":7590,"Ġdiscussed":7591,"Ġaxillary":7592,"Ġhostile":7593,"Ġarthur":7594,"Ġprolif":7595,"Ġconnections":7596,"Ġfilling":7597,"Ġlateral":7598,"Ġventured":7599,"Ġ1850":7600,"Ġcultiv":7601,"Ġrecommend":7602,"Ġtemporary":7603,"Ġtypical":7604,"Ġcondemned":7605,"Ġrebell":7606,"Ġcuba":7607,"Ġpelvis":7608,"Ġopponents":7609,"Ġdeliber":7610,"Ġprivileges":7611,"Ġimpatient":7612,"Ġinspector":7613,"Ġconfederacy":7614,"Ġphilosop":7615,"Ġchancre":7616,"Ġdelirium":7617,"Ġinsignificant":7618,"Ġannex":7619,"Ġmaneu":7620,"Ġambassador":7621,"phantiasis":7622,"liteal":7623,"Ġseaboard":7624,"Ġtimokhin":7625,"27":7626,"43":7627,"65":7628,"born":7629,"cast":7630,"ek":7631,"fed":7632,"give":7633,"had":7634,"pass":7635,"tell":7636,"turo":7637,"uated":7638,"ucted":7639,"Ġice":7640,"Ġwart":7641,"Ġwave":7642,"Ġwaved":7643,"onov":7644,"Ġcad":7645,"Ġcig":7646,"Ġcunning":7647,"itect":7648,"Ġpour":7649,"Ġpneum":7650,"Ġdaughters":7651,"Ġtooth":7652,"orov":7653,"Ġlan":7654,"Ġnik":7655,"Ġheels":7656,"Ġey":7657,"otted":7658,"Ġascend":7659,"Ġstated":7660,"Ġatl":7661,"Ġfruit":7662,"Ġdeaf":7663,"Ġkl":7664,"Ġkit":7665,"Ġexists":7666,"emp":7667,"Ġchain":7668,"Ġchairs":7669,"Ġsheet":7670,"Ġshevard":7671,"Ġjur":7672,"Ġjap":7673,"Ġjest":7674,"Ġrot":7675,"articular":7676,"Ġmelt":7677,"unct":7678,"Ġgoal":7679,"Ġknight":7680,"Ġcoarse":7681,"Ġouter":7682,"Ġaggra":7683,"Ġoffensive":7684,"Ġtrous":7685,"iceps":7686,"Ġblocked":7687,"Ġinduration":7688,"Ġindurated":7689,"Ġwillars":7690,"Ġpermit":7691,"Ġgloves":7692,"Ġpreoccup":7693,"Ġmarching":7694,"Ġours":7695,"Ġobey":7696,"Ġpassions":7697,"Ġrostova":7698,"Ġmakar":7699,"Ġcalls":7700,"Ġclearing":7701,"Ġlawy":7702,"Ġhoriz":7703,"Ġdenied":7704,"Ġborrow":7705,"Ġpurulent":7706,"liver":7707,"Ġfinancial":7708,"Ġlargely":7709,"Ġlovely":7710,"Ġconventions":7711,"Ġchildish":7712,"Ġdestined":7713,"Ġcurious":7714,"Ġdiscont":7715,"Ġkinds":7716,"eches":7717,"Ġawful":7718,"Ġpopul":7719,"Ġfibro":7720,"Ġtempt":7721,"Ġdriver":7722,"Ġhonest":7723,"Ġemployers":7724,"Ġanatomy":7725,"Ġprofits":7726,"Ġdutch":7727,"Ġelectors":7728,"Ġ168":7729,"Ġcavities":7730,"Ġvolume":7731,"Ġindicate":7732,"Ġseverely":7733,"Ġcomplicated":7734,"Ġcomplications":7735,"Ġfailing":7736,"Ġlofty":7737,"Ġmoan":7738,"Ġmilk":7739,"Ġ1865":7740,"ulsion":7741,"Ġbrightly":7742,"Ġattempted":7743,"Ġurine":7744,"Ġarrangements":7745,"Ġhastened":7746,"Ġpunish":7747,"Ġtrademark":7748,"Ġbanking":7749,"Ġdegrees":7750,"Ġpulling":7751,"Ġeldest":7752,"Ġstatus":7753,"Ġarchitect":7754,"Ġhungry":7755,"Ġadditional":7756,"Ġfurnish":7757,"Ġentrusted":7758,"Ġconsequently":7759,"glas":7760,"Ġhence":7761,"Ġprefer":7762,"Ġalarmed":7763,"Ġnaive":7764,"Ġnails":7765,"Ġicons":7766,"Ġvacc":7767,"Ġownership":7768,"Ġcarbolic":7769,"Ġpigment":7770,"Ġhidden":7771,"Ġcriminal":7772,"Ġunconsciously":7773,"Ġsimplicity":7774,"Ġcoronet":7775,"Ġignor":7776,"Ġperplexity":7777,"Ġachieve":7778,"Ġcontempor":7779,"ttp":7780,"Ġultimately":7781,"Ġphilippines":7782,"Ġdunyasha":7783,"Ġkremlin":7784,"Ġabnormal":7785,"Ġcaleche":7786,"Ġsimultaneously":7787,"Ġpavlogr":7788,"umatism":7789,"Ġmilitiamen":7790,"Ġshinshin":7791,"Ġrebellion":7792,"turov":7793,"Ġshevardino":7794,"Ġaggrav":7795,"Ġwillarski":7796,",--":7797,"40":7798,"burn":7799,"baceous":7800,"mamma":7801,"rich":7802,"uously":7803,"rected":7804,"erative":7805,"Ġbands":7806,"Ġbowing":7807,"Ġcook":7808,"Ġhither":7809,"Ġhttp":7810,"itone":7811,"ena":7812,"Ġfatt":7813,"Ġfaint":7814,"Ġpink":7815,"Ġmile":7816,"esc":7817,"Ġthread":7818,"icago":7819,"Ġrein":7820,"still":7821,"Ġrag":7822,"chronic":7823,"Ġsequ":7824,"rific":7825,"Ġexagger":7826,"quite":7827,"Ġchill":7828,"Ġchicago":7829,"Ġaloud":7830,"Ġarise":7831,"Ġarsen":7832,"Ġspont":7833,"Ġmead":7834,"Ġupset":7835,"iev":7836,"Ġdisint":7837,"unn":7838,"unken":7839,"ode":7840,"Ġparticip":7841,"Ġresc":7842,"Ġcanada":7843,"Ġemer":7844,"Ġreplying":7845,"Ġreputation":7846,"Ġindul":7847,"Ġgracious":7848,"Ġglim":7849,"Ġflood":7850,"enses":7851,"Ġmargin":7852,"Ġmetast":7853,"Ġincap":7854,"Ġcharged":7855,"encing":7856,"Ġrecon":7857,"Ġadvised":7858,"Ġperspir":7859,"Ġteach":7860,"Ġefficient":7861,"Ġrested":7862,"Ġrestore":7863,"Ġrestricted":7864,"Ġdrubets":7865,"Ġdrunken":7866,"Ġpurse":7867,"Ġpurple":7868,"Ġservitude":7869,"please":7870,"Ġguar":7871,"Ġirrig":7872,"Ġconstitutes":7873,"Ġfactories":7874,"Ġdecor":7875,"Ġseconds":7876,"Ġxi":7877,"Ġxiv":7878,"Ġxii":7879,"Ġhighroad":7880,"Ġdestructive":7881,"Ġpolitic":7882,"Ġhalted":7883,"Ġvisited":7884,"Ġfourteen":7885,"Ġstepping":7886,"Ġsymmet":7887,"Ġmassage":7888,"Ġpopliteal":7889,"Ġwestward":7890,"Ġbuff":7891,"Ġobsc":7892,"Ġsoftened":7893,"Ġreasonable":7894,"Ġpeaceful":7895,"comm":7896,"Ġfederalist":7897,"Ġ169":7898,"Ġindicating":7899,"Ġstrip":7900,"Ġgaze":7901,"Ġloaded":7902,"Ġarrive":7903,"Ġcandles":7904,"Ġcystic":7905,"Ġcircums":7906,"Ġdamages":7907,"Ġempress":7908,"Ġcalmly":7909,"Ġneighbors":7910,"Ġsources":7911,"_--_":7912,"Ġagreeable":7913,"Ġsupremacy":7914,"Ġfurnished":7915,"Ġstirred":7916,"Ġcorporal":7917,"Ġcandidates":7918,"Ġconsequence":7919,"Ġiodine":7920,"Ġkilling":7921,"Ġwonderful":7922,"Ġgrafts":7923,"Ġdefeated":7924,"Ġpicture":7925,"Ġexchanged":7926,"Ġgummatous":7927,"Ġfavourable":7928,"Ġpillow":7929,"Ġextends":7930,"Ġwhistle":7931,"Ġswayed":7932,"Ġcreature":7933,"Ġadvocates":7934,"Ġsutures":7935,"Ġrows":7936,"Ġsubsequent":7937,"Ġastonishment":7938,"Ġwebster":7939,"Ġrelease":7940,"Ġprofessional":7941,"Ġabundant":7942,"Ġsnuffbox":7943,"Ġjudicial":7944,"Ġundoubtedly":7945,"Ġgonorrhoe":7946,"Ġpieces":7947,"Ġuhlans":7948,"Ġsovereignty":7949,"23":7950,"bor":7951,"fif":7952,"has":7953,"iograph":7954,"lig":7955,"nut":7956,"sac":7957,"some":7958,"Ġtense":7959,"Ġaver":7960,"inter":7961,"inery":7962,"Ġos":7963,"Ġsar":7964,"rection":7965,"Ġwake":7966,"isation":7967,"Ġcrying":7968,"itors":7969,"Ġpust":7970,"Ġmav":7971,"oul":7972,"Ġdoses":7973,"Ġdawn":7974,"orial":7975,"Ġlise":7976,"Ġlane":7977,"Ġlake":7978,"Ġlupus":7979,"Ġnas":7980,"Ġnom":7981,"leb":7982,"Ġgig":7983,"Ġgiant":7984,"Ġgriev":7985,"stre":7986,"Ġstable":7987,"Ġix":7988,"Ġrhet":7989,"Ġconquest":7990,"Ġsustained":7991,"Ġvous":7992,"Ġvest":7993,"rigu":7994,"Ġkir":7995,"acc":7996,"osion":7997,"Ġnephe":7998,"umber":7999,"isting":8000,"Ġspare":8001,"Ġroll":8002,"Ġwept":8003,"Ġupstairs":8004,"Ġintrigu":8005,"Ġlee":8006,"Ġunre":8007,"Ġdokh":8008,"Ġprinted":8009,"Ġdisse":8010,"Ġmanage":8011,"Ġamused":8012,"Ġplacing":8013,"pled":8014,"inder":8015,"Ġclair":8016,"Ġcontain":8017,"Ġwouldn":8018,"Ġsmith":8019,"Ġliqu":8020,"Ġliability":8021,"Ġperpet":8022,"Ġgrim":8023,"Ġcompens":8024,"Ġpretext":8025,"Ġflap":8026,"Ġflowed":8027,"Ġflesh":8028,"Ġscott":8029,"atherine":8030,"Ġdescription":8031,"Ġpassive":8032,"Ġski":8033,"Ġinterp":8034,"Ġendure":8035,"Ġbackward":8036,"Ġresulted":8037,"ceptible":8038,"Ġhorrible":8039,"Ġborn":8040,"Ġguess":8041,"Ġcrushed":8042,"Ġsignal":8043,"Ġlabore":8044,"Ġbushes":8045,"Ġdresses":8046,"uga":8047,"Ġ1900":8048,"Ġapproxim":8049,"Ġcurtain":8050,"Ġcommonest":8051,"Ġfourteenth":8052,"Ġminds":8053,"Ġmissed":8054,"Ġmissing":8055,"Ġcollection":8056,"Ġlocked":8057,"Ġawak":8058,"Ġruns":8059,"Ġdisputes":8060,"Ġmeetings":8061,"Ġequip":8062,"utenant":8063,"Ġshortly":8064,"Ġfarmer":8065,"Ġideal":8066,"Ġdisappro":8067,"Ġvols":8068,"Ġextremities":8069,"Ġ102":8070,"Ġnegative":8071,"Ġmistress":8072,"Ġprobable":8073,"Ġthickening":8074,"Ġsunk":8075,"Ġwriters":8076,"Ġboundary":8077,"Ġactivities":8078,"----------------":8079,"Ġabandoning":8080,"Ġplantations":8081,"Ġfleet":8082,"Ġepithelial":8083,"Ġmountains":8084,"Ġ1805":8085,"Ġdragoons":8086,"Ġsubmitted":8087,"Ġperiosteal":8088,"Ġcabin":8089,"Ġwagon":8090,"Ġimprovements":8091,"Ġtrembled":8092,"Ġfunds":8093,"Ġgreeted":8094,"Ġwhistling":8095,"Ġmachinery":8096,"Ġlumen":8097,"Ġarbitration":8098,"worthy":8099,"Ġecst":8100,"Ġproducts":8101,"Ġnegroes":8102,"Ġmacdonald":8103,"Ġfetch":8104,"Ġdrainage":8105,"Ġfreemason":8106,"diagn":8107,"Ġninete":8108,"Ġantiseptic":8109,"Ġencounter":8110,"Ġinconven":8111,"Ġgravity":8112,"slavery":8113,"Ġaseptic":8114,"Ġkaluga":8115,"Ġaorta":8116,"Ġrhetor":8117,"Ġnephew":8118,"Ġdokhturov":8119,"diff":8120,"eh":8121,"eyed":8122,"fold":8123,"gut":8124,"har":8125,"hum":8126,"ique":8127,"lishing":8128,"net":8129,"troph":8130,"wait":8131,"Ġtipt":8132,"inomy":8133,"Ġthee":8134,"onomic":8135,"Ġbust":8136,"isure":8137,"Ġcri":8138,"Ġcyl":8139,"Ġcouri":8140,"Ġhos":8141,"Ġhint":8142,"Ġfist":8143,"Ġfaster":8144,"Ġpas":8145,"Ġpacing":8146,"Ġpounds":8147,"Ġduc":8148,"Ġdanced":8149,"asim":8150,"Ġnet":8151,"Ġeternal":8152,"import":8153,"othing":8154,"seous":8155,"Ġstall":8156,"Ġstair":8157,"Ġstocking":8158,"verty":8159,"Ġrab":8160,"ulence":8161,"Ġsees":8162,"aine":8163,"Ġvyaz":8164,"ichna":8165,"Ġshaw":8166,"Ġshots":8167,"Ġkings":8168,"Ġkansas":8169,"Ġsale":8170,"Ġchim":8171,"Ġallied":8172,"aks":8173,"ument":8174,"Ġjury":8175,"Ġrobert":8176,"Ġweep":8177,"ardon":8178,"Ġintr":8179,",\"*":8180,"Ġleisure":8181,"Ġabd":8182,"Ġabrupt":8183,"Ġthereof":8184,"cci":8185,"Ġcopper":8186,"supp":8187,"ittered":8188,"Ġembedded":8189,"Ġblisters":8190,"Ġindex":8191,"angled":8192,"Ġovercoat":8193,"haw":8194,"Ġglances":8195,"Ġcompare":8196,"Ġimpair":8197,"Ġimprison":8198,"Ġimpaired":8199,"Ġdownstairs":8200,"Ġthrone":8201,"Ġdesert":8202,"Ġsubstances":8203,"Ġturns":8204,"Ġdistress":8205,"Ġpoland":8206,"Ġconstruction":8207,"Ġinval":8208,"Ġresting":8209,"Ġpainfully":8210,"def":8211,"Ġsentence":8212,"Ġ1920":8213,"Ġquestioning":8214,"Ġlaying":8215,"Ġexplo":8216,"Ġslender":8217,"Ġpoverty":8218,"economic":8219,"Ġprojects":8220,"Ġbuonaparte":8221,"Ġeasier":8222,"Ġmidnight":8223,"Ġcoldly":8224,"Ġkingdom":8225,"Ġrepresentation":8226,"Ġoccupations":8227,"ippers":8228,"romatosis":8229,"Ġ163":8230,"Ġjoyous":8231,"Ġzone":8232,"Ġlover":8233,"Ġrubber":8234,"umbled":8235,"Ġsolitary":8236,"Ġcopies":8237,"Ġlosses":8238,"Ġdistribute":8239,"Ġclothing":8240,"Ġprayed":8241,"Ġbench":8242,"aginous":8243,"Ġirony":8244,"Ġhampsh":8245,"Ġmarshals":8246,"Ġexisting":8247,"Ġsuspected":8248,"Ġheroic":8249,"Ġdiplomat":8250,"Ġsciatic":8251,"Ġdealt":8252,"Ġconcealed":8253,"Ġcomparison":8254,"Ġinvoluntary":8255,"Ġratified":8256,"Ġfurniture":8257,"Ġresembles":8258,"cisely":8259,"Ġoedematous":8260,"Ġcorporations":8261,"Ġrecorded":8262,"Ġlipoma":8263,"Ġcorresponding":8264,"Ġschools":8265,"Ġresolutions":8266,"Ġstroke":8267,"Ġinherit":8268,"Ġbattalions":8269,"Ġsevent":8270,"Ġroute":8271,"Ġitaly":8272,"Ġreckoned":8273,"Ġanterior":8274,"Ġindifference":8275,"Ġconveyed":8276,"Ġoutline":8277,"Ġcontradict":8278,"Ġvexation":8279,"niquet":8280,"Ġsubsequently":8281,"Ġrevolt":8282,"Ġadults":8283,"franch":8284,"Ġscalp":8285,"Ġmedullary":8286,"prince":8287,"Ġgerasim":8288,"Ġiliac":8289,"Ġenvelope":8290,"Ġavenue":8291,"Ġmedicine":8292,"Ġdismounted":8293,"Ġenergetic":8294,"Ġgossip":8295,"Ġjuris":8296,"Ġexaggerated":8297,"Ġhampshire":8298,".).":8299,"50":8300,"58":8301,"dled":8302,"ez":8303,"ground":8304,"iative":8305,"line":8306,"leness":8307,"mosp":8308,"oqu":8309,"point":8310,"rous":8311,"rations":8312,"Ġ.":8313,"Ġtent":8314,"inburgh":8315,"Ġtheater":8316,"Ġtheodore":8317,"Ġsand":8318,"Ġsant":8319,"Ġsallow":8320,"rese":8321,"rench":8322,"Ġbos":8323,"Ġcens":8324,"Ġcatherine":8325,"Ġpitt":8326,"Ġpark":8327,"Ġmack":8328,"ese":8329,"inges":8330,"ingling":8331,"Ġdak":8332,"Ġdried":8333,"Ġduration":8334,"Ġlux":8335,"Ġni":8336,"Ġnaked":8337,"icit":8338,"Ġgren":8339,"Ġbeaus":8340,"Ġreact":8341,"idable":8342,"Ġwaste":8343,"Ġstagg":8344,"Ġstaphyl":8345,"ghter":8346,"irable":8347,"irish":8348,"Ġatmosp":8349,"Ġcongenital":8350,"Ġsecession":8351,"Ġshared":8352,"ems":8353,"estab":8354,"akers":8355,"umes":8356,"Ġalabama":8357,"Ġspin":8358,"Ġroar":8359,"opl":8360,"Ġfeather":8361,"Ġdose":8362,"ours":8363,"Ġagent":8364,"aunt":8365,"Ġpartial":8366,"Ġreserv":8367,"Ġreminded":8368,"Ġindia":8369,"Ġinduce":8370,"Ġindiana":8371,"Ġindirect":8372,"Ġovergrowth":8373,"arest":8374,"Ġformidable":8375,"Ġperf":8376,"Ġnewcom":8377,"Ġglob":8378,"Ġfox":8379,"Ġimpet":8380,"Ġexport":8381,"Ġflatter":8382,"Ġturner":8383,"ribly":8384,"Ġdistin":8385,"Ġdistal":8386,"Ġincor":8387,"Ġconferred":8388,"hesia":8389,"Ġrelax":8390,"Ġrelieved":8391,"Ġendless":8392,"Ġconducted":8393,"Ġreflect":8394,"Ġrecru":8395,"Ġdefin":8396,"Ġlargest":8397,"Ġcommanded":8398,"Ġplex":8399,"Ġdepended":8400,"Ġdepression":8401,"Ġdrank":8402,"Ġoccurring":8403,"Ġminim":8404,"plete":8405,"Ġinsens":8406,"Ġirish":8407,"Ġconstitute":8408,"Ġfinance":8409,"Ġmonop":8410,"itsyn":8411,"Ġanswers":8412,"shot":8413,"Ġspeaker":8414,"Ġpropose":8415,"Ġexplaining":8416,"Ġcalam":8417,"Ġdiscon":8418,"Ġpoll":8419,"Ġprotested":8420,"Ġdifferently":8421,"Ġcharacterised":8422,"Ġrepeat":8423,"Ġdecline":8424,"Ġdeclare":8425,"clude":8426,"Ġmeasured":8427,"Ġfalls":8428,"Ġcompleted":8429,"fortable":8430,"Ġattacking":8431,"Ġsuccessfully":8432,"Ġslightest":8433,"Ġsaline":8434,"Ġmodest":8435,"Ġmozh":8436,"aysk":8437,"Ġrubbing":8438,"Ġharsh":8439,"amental":8440,"Ġoriginate":8441,"Ġfunny":8442,"Ġligaments":8443,"Ġ116":8444,"Ġdamage":8445,"Ġnarrative":8446,"Ġdeformities":8447,"Ġinjections":8448,"Ġimplicated":8449,"Ġlieutenant":8450,"questions":8451,"Ġ1890":8452,"Ġwisdom":8453,"Ġdisplacement":8454,"Ġplaton":8455,"Ġhunger":8456,"ococcal":8457,"Ġabolished":8458,"Ġfairly":8459,"Ġsobbing":8460,"Ġconsisting":8461,"Ġ1776":8462,"Ġbezukhova":8463,"Ġrecords":8464,"Ġmessenger":8465,"Ġmagnanim":8466,"Ġcontracture":8467,"grace":8468,"Ġpositions":8469,"Ġbogdan":8470,"Ġsufferings":8471,"Ġpredomin":8472,"icipal":8473,"fourth":8474,"Ġbelonging":8475,"Ġuncomfortable":8476,"Ġensues":8477,"Ġdiscovery":8478,"Ġsamuel":8479,"Ġsavage":8480,"Ġcruelty":8481,"Ġinitial":8482,"Ġinvestigation":8483,"Ġrobber":8484,"Ġaccumulation":8485,"Ġremedy":8486,"Ġsleeve":8487,"Ġdeposit":8488,"Ġconquer":8489,"Ġtourniquet":8490,"Ġilagin":8491,"Ġwelcom":8492,"Ġclerk":8493,"Ġscheme":8494,"stitution":8495,"Ġsuppurative":8496,"Ġnaevus":8497,"Ġgoverness":8498,"Ġadvertisement":8499,"irocha":8500,"Ġdouglas":8501,"Ġconscience":8502,"Ġinflicted":8503,"Ġprocedure":8504,"Ġdiscipline":8505,"leston":8506,"Ġcadet":8507,"Ġmavra":8508,"diagnosis":8509,"research":8510,"Ġbeausset":8511,"Ġmozhaysk":8512,"26":8513,"47":8514,"book":8515,"egr":8516,"lad":8517,"nicholas":8518,"put":8519,"pread":8520,"rors":8521,"ses":8522,"uish":8523,"uits":8524,"vation":8525,"wom":8526,"year":8527,"zy":8528,"Ġtap":8529,"Ġtons":8530,"hearted":8531,"inating":8532,"Ġwides":8533,"atoma":8534,"Ġcust":8535,"Ġcrops":8536,"itimate":8537,"Ġfence":8538,"Ġmour":8539,"Ġmoves":8540,"Ġdrow":8541,"orse":8542,"ana":8543,"Ġlined":8544,"Ġlaz":8545,"oming":8546,"icted":8547,"Ġegg":8548,"Ġgly":8549,"Ġbee":8550,"Ġbees":8551,"iday":8552,"Ġwhir":8553,"sev":8554,"ura":8555,"Ġstared":8556,"Ġstake":8557,"Ġrivers":8558,"Ġroused":8559,"Ġriot":8560,"chagin":8561,"ols":8562,"Ġorient":8563,"hers":8564,"Ġsuction":8565,"Ġkras":8566,"Ġneural":8567,"ema":8568,"Ġchines":8569,"abor":8570,"Ġargu":8571,"Ġroot":8572,"Ġunw":8573,"ivity":8574,"Ġamusing":8575,"theria":8576,"ĠĠĠĠĠĠĠĠĠĠĠ":8577,"Ġknocked":8578,"Ġcool":8579,"asts":8580,"asty":8581,"Ġenable":8582,"Ġaggress":8583,"suff":8584,"odka":8585,"Ġtrick":8586,"ubation":8587,"Ġblister":8588,"Ġinfants":8589,"Ġfog":8590,"Ġimpressed":8591,"Ġimpending":8592,"Ġprem":8593,"Ġexpand":8594,"Ġmarched":8595,"Ġslip":8596,"Ġsurve":8597,"Ġ21":8598,"Ġentreat":8599,"Ġthinks":8600,"Ġinterpre":8601,"Ġrelative":8602,"Ġassurance":8603,"Ġcharleston":8604,"Ġconstr":8605,"Ġpatience":8606,"Ġteacher":8607,"Ġinstances":8608,"Ġdrum":8609,"Ġelapsed":8610,"Ġinsur":8611,"Ġcontinues":8612,"Ġirre":8613,"Ġchildlike":8614,"Ġfactory":8615,"Ġfactors":8616,"Ġcheap":8617,"Ġboil":8618,"Ġdiph":8619,"ouncing":8620,"Ġbehalf":8621,"Ġdecisive":8622,"Ġtroph":8623,"Ġcountrymen":8624,"Ġdetected":8625,"Ġartisans":8626,"Ġestim":8627,"Ġcircular":8628,"Ġlesser":8629,"Ġcurly":8630,"Ġtransl":8631,"braska":8632,"Ġdiscrim":8633,"Ġsmilingly":8634,"Ġlocated":8635,"Ġsympat":8636,"Ġterminal":8637,"Ġporto":8638,"Ġopenly":8639,"Ġlining":8640,"Ġtreason":8641,"Ġemployment":8642,"Ġdroop":8643,"Ġhoping":8644,"Ġrealm":8645,"Ġhurrying":8646,"Ġhurrah":8647,"Ġprepuce":8648,"Ġbarrier":8649,"Ġprofit":8650,"Ġprofuse":8651,"reshchagin":8652,"Ġindependently":8653,"Ġstrangely":8654,"Ġoccupy":8655,"Ġregarding":8656,"Ġaccordingly":8657,"Ġrailroad":8658,"Ġenglishman":8659,"Ġstrengthe":8660,"Ġelsewhere":8661,"Ġmedian":8662,"Ġanticip":8663,"Ġradiant":8664,"Ġweaker":8665,"Ġapolog":8666,"Ġmembranes":8667,"Ġoccasional":8668,"Ġaims":8669,"Ġligament":8670,"Ġrises":8671,"Ġremarkably":8672,"Ġfibroma":8673,"Ġtrading":8674,"Ġcitizen":8675,"Ġimproved":8676,"Ġsettlements":8677,"Ġextravas":8678,"Ġstretcher":8679,"Ġflee":8680,"Ġmajestic":8681,"Ġhatred":8682,"Ġporter":8683,"Ġapplicable":8684,"Ġretreating":8685,"Ġelbows":8686,"consin":8687,"Ġchristmas":8688,"Ġcorrespondence":8689,"Ġqualities":8690,"Ġsuggestion":8691,"Ġdilated":8692,"Ġvigorously":8693,"minichna":8694,"Ġundertaking":8695,"Ġdelayed":8696,"Ġsurrendered":8697,"Ġgreeting":8698,"Ġcomrade":8699,"Ġcreating":8700,"Ġpanama":8701,"Ġhydrops":8702,"Ġfolded":8703,"Ġproprietary":8704,"Ġrico":8705,"Ġalbum":8706,"Ġmunicipal":8707,"Ġeighteen":8708,"Ġinfections":8709,"Ġprosperity":8710,"Ġdisclaim":8711,"Ġgrateful":8712,"Ġhuntsman":8713,"Ġrheumatism":8714,"Ġinfiltration":8715,"Ġattributed":8716,"Ġvividly":8717,"Ġdishon":8718,"Ġcoffee":8719,"Ġbewild":8720,"Ġkuzminichna":8721,"Ġweapon":8722,"Ġintestine":8723,"Ġepiphysial":8724,"Ġafrica":8725,"Ġvelve":8726,"Ġbryan":8727,"Ġsemenov":8728,"Ġmyeloma":8729,"Ġclinically":8730,"Ġhoofs":8731,"Ġpyaemia":8732,"Ġannexation":8733,"Ġkitc":8734,"Ġtiptoe":8735,"Ġcourier":8736,"Ġhosmer":8737,"Ġsevente":8738,"Ġwidespread":8739,"Ġchinese":8740,"bar":8741,"da":8742,"iest":8743,"iological":8744,"iology":8745,"khov":8746,"nar":8747,"vich":8748,"vorov":8749,"war":8750,"zogen":8751,"zuel":8752,"Ġtips":8753,"Ġwire":8754,"Ġwretched":8755,"Ġbier":8756,"eded":8757,"Ġhate":8758,"Ġhud":8759,"Ġhiding":8760,"Ġfile":8761,"Ġfug":8762,"Ġfitted":8763,"Ġfrown":8764,"Ġpole":8765,"especially":8766,"Ġinoc":8767,"Ġinex":8768,"Ġdashed":8769,"Ġtol":8770,"Ġtoss":8771,"orad":8772,"Ġlent":8773,"Ġlarynx":8774,"omed":8775,"Ġeating":8776,"Ġgas":8777,"rog":8778,"Ġwashed":8779,"Ġstain":8780,"Ġstub":8781,"irts":8782,"Ġante":8783,"Ġrice":8784,"Ġrye":8785,"Ġryaz":8786,"Ġatroph":8787,"Ġcong":8788,"oli":8789,"olen":8790,"Ġorange":8791,"Ġsex":8792,"Ġsebaceous":8793,"usse":8794,"Ġvene":8795,"Ġvodka":8796,"those":8797,"Ġalleg":8798,"igan":8799,"Ġsport":8800,"Ġroyl":8801,"Ġunch":8802,"ressible":8803,"Ġwhence":8804,"Ġenum":8805,"Ġplate":8806,"place":8807,"Ġintoxic":8808,"Ġoffering":8809,"Ġtraces":8810,"Ġrepar":8811,"Ġblunt":8812,"Ġnowhere":8813,"Ġcompact":8814,"Ġimpuls":8815,"izes":8816,"Ġflames":8817,"Ġprescribed":8818,"Ġlonged":8819,"Ġscap":8820,"Ġ210":8821,"Ġaccent":8822,"Ġcarotid":8823,"Ġopens":8824,"Ġopium":8825,"Ġactinomy":8826,"Ġsubtle":8827,"neys":8828,"Ġwherever":8829,"Ġassure":8830,"Ġfollowers":8831,"Ġcorrupt":8832,"Ġcorpus":8833,"Ġreflection":8834,"Ġrecourse":8835,"Ġtele":8836,"Ġesc":8837,"Ġ55":8838,"Ġearnest":8839,"liest":8840,"Ġguide":8841,"ieth":8842,"Ġmorose":8843,"Ġlime":8844,"Ġcrush":8845,"Ġbohem":8846,"Ġproduces":8847,"Ġquestioned":8848,"Ġmerit":8849,"Ġstandards":8850,"Ġfinds":8851,"Ġedinburgh":8852,"Ġdiscol":8853,"Ġneedles":8854,"Ġawake":8855,"Ġappearing":8856,"Ġrepeal":8857,"cribe":8858,"Ġanatomical":8859,"Ġprofess":8860,"Ġrepresenting":8861,"Ġrepeatedly":8862,"Ġsacred":8863,"Ġstudies":8864,"Ġ99":8865,"Ġexamples":8866,"Ġtyph":8867,"Ġradial":8868,"Ġinfluences":8869,"Ġdimly":8870,"Ġstraw":8871,"Ġharv":8872,"Ġharrison":8873,"Ġremembering":8874,"Ġfavorable":8875,"Ġoriginates":8876,"Ġdissent":8877,"Ġmuttering":8878,"Ġintroduce":8879,"Ġgolden":8880,"Ġeconomy":8881,"Ġrestrictions":8882,"Ġgradual":8883,"Ġbirch":8884,"Ġapplications":8885,"Ġheroes":8886,"Ġsorts":8887,"Ġassemblies":8888,"asped":8889,"Ġ1896":8890,"Ġhostility":8891,"Ġparalys":8892,"Ġaffectionate":8893,"Ġcords":8894,"Ġreformers":8895,"Ġwolzogen":8896,"ĠĠĠĠĠĠĠĠĠĠĠĠĠĠĠĠĠĠĠĠĠĠĠĠĠĠ":8897,"Ġflexor":8898,"Ġdismay":8899,"Ġpursuit":8900,"Ġpassionately":8901,"Ġsolemnly":8902,"Ġfoolish":8903,"Ġmotor":8904,"Ġsloughs":8905,"Ġroutine":8906,"Ġaudible":8907,"Ġqueen":8908,"Ġwhitlow":8909,"Ġheights":8910,"Ġthrombus":8911,"Ġencouraged":8912,"Ġframework":8913,"Ġattractive":8914,"Ġopponent":8915,"Ġembolism":8916,"Ġpromptly":8917,"Ġanaesthetic":8918,"Ġspasms":8919,"Ġreluctantly":8920,"Ġcompetition":8921,"Ġbuttock":8922,"Ġtransformed":8923,"Ġerupt":8924,"Ġtaste":8925,"Ġbundles":8926,"Ġrickets":8927,"Ġocclud":8928,"Ġrecollection":8929,"Ġcelebrated":8930,"Ġalleged":8931,"Ġlungs":8932,"Ġdeliberately":8933,"Ġatlantic":8934,"Ġknights":8935,"Ġpreoccupied":8936,"Ġhitherto":8937,"Ġcircumscribed":8938,"Ġgigantic":8939,"Ġskiagr":8940,"Ġcripp":8941,"Ġatmosphere":8942,"stitutional":8943,"Ġvenezuel":8944,");":8945,"case":8946,"cks":8947,"del":8948,"eed":8949,"ext":8950,"fir":8951,"got":8952,"iations":8953,"mo":8954,"mut":8955,"mont":8956,"national":8957,"oz":8958,"sis":8959,"ta":8960,"tis":8961,"time":8962,"uke":8963,"ygen":8964,"Ġ-":8965,"Ġties":8966,"Ġtenth":8967,"inine":8968,"Ġsul":8969,"Ġsarc":8970,"Ġward":8971,"Ġwitt":8972,"onse":8973,"Ġcough":8974,"Ġcath":8975,"Ġcrop":8976,"Ġhug":8977,"Ġfut":8978,"Ġmuse":8979,"inger":8980,"Ġdaring":8981,"anx":8982,"Ġthresh":8983,"Ġlone":8984,"Ġlately":8985,"Ġhend":8986,"icks":8987,"Ġgal":8988,"Ġgree":8989,"veled":8990,"owa":8991,"Ġstump":8992,"Ġras":8993,"ereur":8994,"Ġconject":8995,"Ġcongest":8996,"amph":8997,"Ġseason":8998,"Ġvor":8999,"ichord":9000,"Ġshops":9001,"acle":9002,"emen":9003,"ovar":9004,"Ġallies":9005,"Ġspurs":9006,"Ġspirocha":9007,"Ġrolling":9008,"artered":9009,"ounding":9010,"Ġdisli":9011,"Ġmanhood":9012,"Ġaden":9013,"unities":9014,"Ġens":9015,"inders":9016,"Ġclaimed":9017,"Ġtrained":9018,"Ġparted":9019,"Ġcommons":9020,"Ġbliss":9021,"Ġhandle":9022,"Ġperce":9023,"Ġglow":9024,"Ġscream":9025,"Ġdownwards":9026,"issa":9027,"Ġgreatness":9028,"Ġdesires":9029,"Ġpasses":9030,"Ġordin":9031,"Ġaffirm":9032,"Ġspecul":9033,"never":9034,"ĠĠĠĠĠĠĠĠĠĠĠĠĠĠĠĠĠĠĠĠ":9035,"Ġcapillary":9036,"Ġfoundations":9037,"Ġadding":9038,"Ġdefended":9039,"Ġdepths":9040,"Ġdrinking":9041,"Ġdrissa":9042,"Ġeloqu":9043,"Ġgets":9044,"Ġcaus":9045,"Ġinserted":9046,"Ġterribly":9047,"inson":9048,"Ġtreating":9049,"Ġlimits":9050,"renched":9051,"short":9052,"Ġadmitting":9053,"Ġchecked":9054,"Ġcrushing":9055,"sonya":9056,"pray":9057,"Ġprovidence":9058,"Ġxiii":9059,"Ġsentin":9060,"Ġ199":9061,"Ġdestiny":9062,"Ġraev":9063,"Ġtranspl":9064,"Ġpromoted":9065,"Ġlayers":9066,"Ġnights":9067,"Ġmerrily":9068,"Ġpoly":9069,"azed":9070,"Ġtraffic":9071,"Ġmadam":9072,"Ġnationalism":9073,"Ġlinen":9074,"Ġtemple":9075,".#--_":9076,"Ġbrotherhood":9077,"Ġposts":9078,"Ġvoted":9079,"Ġ160":9080,"Ġ167":9081,"Ġsquee":9082,"Ġerosion":9083,"Ġacquainted":9084,"Ġrespects":9085,"Ġrespectful":9086,"Ġexamine":9087,"Ġmedical":9088,"Ġcomplain":9089,"Ġrespected":9090,"Ġrespiration":9091,"Ġsatisf":9092,"Ġwoods":9093,"Ġjohnson":9094,"Ġfunctions":9095,"Ġpalp":9096,"Ġintervention":9097,"Ġgenerations":9098,"Ġaccompany":9099,"Ġ1917":9100,"Ġcirculating":9101,"Ġavoiding":9102,"project":9103,"synov":9104,"Ġwisconsin":9105,"Ġmichaud":9106,"Ġpermitted":9107,"Ġ325":9108,"Ġjacksonian":9109,"Ġgrie":9110,"Ġdelightful":9111,"Ġdragging":9112,"Ġcomfortable":9113,"Ġcreditors":9114,"Ġhabitual":9115,"Ġivanovna":9116,"Ġrumors":9117,"Ġpotato":9118,"Ġagricultural":9119,"Ġattendance":9120,"Ġinstitution":9121,"Ġensue":9122,"Ġhydro":9123,"Ġaudience":9124,"Ġmuskets":9125,"Ġtreasure":9126,"Ġshrie":9127,"Ġtightly":9128,"Ġpatriotic":9129,"worth":9130,"Ġvolunteers":9131,"Ġtearing":9132,"Ġwitnessed":9133,"Ġembarrassed":9134,"Ġnursery":9135,"Ġanaesthesia":9136,"Ġverses":9137,"Ġappreciated":9138,"Ġtranquill":9139,"Ġeighteenth":9140,"Ġclavichord":9141,"break":9142,"Ġmicro":9143,"Ġvertebra":9144,"Ġadoption":9145,"Ġwaistcoat":9146,"Ġrectum":9147,"Ġexudate":9148,"Ġsailors":9149,"otheli":9150,"Ġemancipation":9151,"Ġirresistible":9152,"Ġolmut":9153,"Ġhorizon":9154,"Ġguarant":9155,"Ġirrigation":9156,"Ġlaborers":9157,"Ġnineteenth":9158,"Ġshawl":9159,"Ġwelcomed":9160,"Ġkrasnoe":9161,"Ġdiphtheria":9162,"Ġryazan":9163,"Ġscapula":9164,"Ġolmutz":9165,".),":9166,"38":9167,"bish":9168,"des":9169,"gue":9170,"iac":9171,"long":9172,"off":9173,"pow":9174,"ser":9175,"tic":9176,"tim":9177,"take":9178,"wed":9179,"Ġtaught":9180,"Ġoint":9181,"Ġsire":9182,"rez":9183,"reoid":9184,"Ġbat":9185,"Ġbrow":9186,"Ġbaz":9187,"Ġcro":9188,"Ġhit":9189,"Ġhated":9190,"Ġfert":9191,"Ġfoul":9192,"Ġpose":9193,"Ġpite":9194,"Ġpuzz":9195,"Ġpamph":9196,"Ġdanc":9197,"orter":9198,"anth":9199,"asions":9200,"Ġloves":9201,"Ġniece":9202,"Ġheed":9203,"Ġheel":9204,"omatous":9205,"icating":9206,"Ġbeating":9207,"Ġbears":9208,"adv":9209,"Ġreins":9210,"ropath":9211,"ston":9212,"idency":9213,"uria":9214,"urious":9215,"Ġstuff":9216,"Ġriv":9217,"Ġrage":9218,"Ġrug":9219,"Ġrude":9220,"Ġconj":9221,"amin":9222,"ila":9223,"allel":9224,"Ġseats":9225,"Ġdeem":9226,"Ġsust":9227,"Ġsuvorov":9228,"Ġvom":9229,"Ġvested":9230,"rikhov":9231,"Ġshud":9232,"Ġshipping":9233,"Ġexal":9234,"Ġneat":9235,"agocyt":9236,"ifted":9237,"Ġsap":9238,"Ġchoo":9239,"about":9240,"Ġshel":9241,"istry":9242,"Ġjol":9243,"Ġmeek":9244,"Ġupwards":9245,"Ġintens":9246,"Ġabbe":9247,"Ġfears":9248,"Ġunhe":9249,"Ġdisple":9250,"Ġdisgrace":9251,"Ġmanners":9252,"Ġamiable":9253,"ocation":9254,"Ġencl":9255,"Ġplenty":9256,"Ġworm":9257,"Ġtrains":9258,"Ġresumed":9259,"Ġemerg":9260,"Ġrepuls":9261,"Ġbluish":9262,"Ġindolent":9263,"anges":9264,"Ġtwisted":9265,"Ġperish":9266,"Ġperished":9267,"Ġgrants":9268,"Ġfoe":9269,"Ġfores":9270,"Ġimpulse":9271,"Ġpregn":9272,"Ġexpenses":9273,"ucked":9274,"Ġgenu":9275,"achments":9276,"ormally":9277,"Ġslope":9278,"ordered":9279,"Ġcarpet":9280,"Ġthoughtful":9281,"Ġentry":9282,"Ġskilled":9283,"Ġjustify":9284,"Ġinterc":9285,"Ġinterm":9286,"Ġinterstate":9287,"Ġincised":9288,"Ġrelate":9289,"Ġhappily":9290,"Ġconstructed":9291,"Ġdefending":9292,"Ġeffected":9293,"Ġvoid":9294,"Ġeleven":9295,"Ġforeseen":9296,"Ġdram":9297,"Ġdrastic":9298,"Ġmines":9299,"Ġphase":9300,"Ġguessed":9301,"Ġinsid":9302,"Ġmemorable":9303,"Ġwrath":9304,"Ġfinishing":9305,"Ġsinking":9306,"Ġreduction":9307,"should":9308,"shine":9309,"Ġcrimes":9310,"Ġdecree":9311,"Ġtroy":9312,"Ġreplacement":9313,"Ġlessons":9314,"Ġcenters":9315,"Ġsecurity":9316,"Ġlights":9317,"Ġhumili":9318,"Ġburke":9319,"Ġcalcul":9320,"Ġedition":9321,"Ġeditor":9322,"Ġstepfather":9323,"venous":9324,"Ġlandown":9325,"Ġcollateral":9326,"Ġbreach":9327,"Ġprotected":9328,"Ġdelivered":9329,"Ġtenure":9330,"Ġprojecting":9331,"Ġdispatch":9332,"Ġinvolves":9333,"Ġviewed":9334,"Ġcellar":9335,"Ġposted":9336,"Ġstrengthen":9337,"affin":9338,"Ġobserving":9339,"Ġcampaigns":9340,"Ġproperly":9341,"Ġscarlet":9342,"Ġforeigners":9343,"Ġhonorable":9344,"Ġ70":9345,"Ġ103":9346,"Ġmodified":9347,"Ġswellings":9348,"Ġjudging":9349,"Ġsymptom":9350,"Ġresponse":9351,"Ġeighty":9352,"Ġmilorad":9353,"Ġ1861":9354,"Ġsunshine":9355,"Ġdissolution":9356,"Ġpunished":9357,"Ġpunishment":9358,"Ġcommunity":9359,"Ġbandaged":9360,"Ġcartilaginous":9361,"Ġsherman":9362,"Ġwarmly":9363,"Ġinquiring":9364,"Ġinquiries":9365,"Ġfrankly":9366,"Ġphysically":9367,"Ġdisplaced":9368,"Ġrecalling":9369,"Ġmichigan":9370,"Ġspoils":9371,"Ġscrut":9372,"Ġscraped":9373,"Ġkarag":9374,"Ġthoracic":9375,"Ġenjoyment":9376,"Ġharmful":9377,"Ġdismiss":9378,"Ġyielding":9379,"Ġsplints":9380,"Ġqualifications":9381,"Ġfortunate":9382,"Ġmechanics":9383,"Ġaspects":9384,"Ġfasc":9385,"Ġsamovar":9386,"Ġmonarchy":9387,"Ġtemporarily":9388,"Ġlogical":9389,"Ġfulfilled":9390,"Ġflourishing":9391,"Ġstimul":9392,"Ġpatriotism":9393,"Ġconvey":9394,"Ġafforded":9395,"Ġvexed":9396,"Ġdemonstrated":9397,"Ġrequirements":9398,"Ġnewspaper":9399,"Ġenforcement":9400,"Ġcontempl":9401,"Ġblockade":9402,"Ġoxygen":9403,"Ġinclined":9404,"Ġmanufacturers":9405,"Ġpronounced":9406,"Ġwrinkled":9407,"Ġtranquil":9408,"Ġchondroma":9409,"Ġcooperation":9410,"+--------------":9411,"Ġmusketry":9412,"Ġnominated":9413,"Ġannouncement":9414,"Ġcommissions":9415,"Ġkidney":9416,"Ġsuspicion":9417,"Ġvehicles":9418,"Ġtransmitted":9419,"Ġbureau":9420,"Ġspongy":9421,"Ġdocument":9422,"Ġphalanx":9423,"Ġisolated":9424,"Ġrapturous":9425,"Ġexclusively":9426,"Ġbreeches":9427,"Ġgouty":9428,"Ġoverthrow":9429,"Ġmaximum":9430,"Ġmaneuvers":9431,"empereur":9432,"Ġjapan":9433,"Ġtrousers":9434,"Ġfatty":9435,"sacrifice":9436,"Ġnasal":9437,"lebitis":9438,"Ġequipment":9439,"Ġinconvenience":9440,"Ġ.|":9441,"Ġbosom":9442,"Ġniemen":9443,"Ġdefinition":9444,"Ġroylott":9445,"first":9446,"Ġhendrikhov":9447,"Ġcongestion":9448,"Ġraevski":9449,"Ġhendrikhovna":9450,"#,":9451,"_).":9452,"bu":9453,"bes":9454,"doc":9455,"eer":9456,"gang":9457,"gutenberg":9458,"je":9459,"kansas":9460,"mot":9461,"mich":9462,"ped":9463,"satis":9464,"vy":9465,"would":9466,"yr":9467,"yright":9468,"Ġtale":9469,"Ġtiny":9470,"requ":9471,"Ġwond":9472,"Ġwoke":9473,"atching":9474,"Ġbud":9475,"Ġbism":9476,"Ġcort":9477,"Ġhive":9478,"itud":9479,"Ġfom":9480,"Ġfish":9481,"Ġpul":9482,"Ġpush":9483,"Ġpardon":9484,"Ġment":9485,"Ġmos":9486,"Ġmole":9487,"Ġinsuff":9488,"Ġdow":9489,"Ġdus":9490,"Ġdens":9491,"Ġtow":9492,"arian":9493,"Ġlob":9494,"Ġlively":9495,"lections":9496,"Ġgains":9497,"Ġbef":9498,"alk":9499,"adi":9500,"stead":9501,"idation":9502,"oters":9503,"Ġure":9504,"Ġwasted":9505,"urred":9506,"Ġston":9507,"Ġstuck":9508,"Ġforc":9509,"eties":9510,"Ġrushing":9511,"Ġorbit":9512,"Ġshrew":9513,"Ġsharing":9514,"Ġker":9515,"osl":9516,"thal":9517,"aga":9518,"Ġchase":9519,"umption":9520,"abled":9521,"Ġproves":9522,".\"*":9523,"Ġjug":9524,"Ġjones":9525,"Ġintact":9526,"Ġintentions":9527,"Ġabuses":9528,"Ġdisg":9529,"Ġdisability":9530,"Ġdisinf":9531,"Ġmanager":9532,"rax":9533,"Ġoutpost":9534,"Ġpled":9535,"Ġplun":9536,"Ġaged":9537,"ibank":9538,"!\"*":9539,"Ġclock":9540,"Ġappar":9541,"Ġappend":9542,"Ġcontained":9543,"Ġcontracted":9544,"Ġanybody":9545,"Ġcounted":9546,"Ġsomebody":9547,"Ġblocking":9548,"Ġbrad":9549,"Ġbrushed":9550,"Ġtwent":9551,"Ġfoll":9552,"Ġexpend":9553,"Ġflowing":9554,"Ġpresidency":9555,"Ġscrot":9556,"Ġslipping":9557,"white":9558,"Ġsyn":9559,"Ġsubd":9560,"Ġ416":9561,"Ġgoverned":9562,"Ġdistorted":9563,"Ġsupposing":9564,"Ġreliable":9565,"Ġrelieve":9566,"Ġrelapse":9567,"Ġcourty":9568,"Ġreadiness":9569,"ontov":9570,"Ġdefective":9571,"Ġinvari":9572,"Ġeffic":9573,"Ġelim":9574,"Ġtells":9575,"Ġcares":9576,"Ġguer":9577,"Ġinsist":9578,"Ġcontinuing":9579,"Ġcontinuity":9580,"Ġtreaties":9581,"Ġparade":9582,"Ġreduce":9583,"isms":9584,"Ġvereshchagin":9585,"Ġopposing":9586,"Ġ1912":9587,"Ġapprove":9588,"ternally":9589,"Ġulnar":9590,"Ġburd":9591,"Ġburied":9592,"Ġdiscom":9593,"Ġbrig":9594,"Ġlandlord":9595,"Ġcompanions":9596,"Ġexcised":9597,"Ġdivisions":9598,"Ġtrail":9599,"Ġtraitor":9600,"Ġwindibank":9601,"Ġcharacterist":9602,"Ġbalaga":9603,"Ġ66":9604,"Ġlaun":9605,"coming":9606,"Ġsums":9607,"Ġelectoral":9608,"Ġfirmness":9609,"Ġjew":9610,"Ġannual":9611,"Ġsacrific":9612,"Ġconversations":9613,"Ġestablishing":9614,"Ġsales":9615,"Ġcourtiers":9616,"Ġ79":9617,"Ġinquire":9618,"Ġcomplaint":9619,"Ġfails":9620,"Ġinfluenced":9621,"Ġjoking":9622,"Ġinterfered":9623,"Ġwrites":9624,"Ġsleepy":9625,"Ġmurd":9626,"Ġmutual":9627,"Ġgenerous":9628,"Ġhotel":9629,"Ġdetermination":9630,"blue":9631,"Ġ1914":9632,"Ġfleches":9633,"Ġanxiously":9634,"Ġneighboring":9635,"Ġbachel":9636,"Ġhostess":9637,"Ġ1809":9638,"Ġbrachial":9639,"Ġsubmission":9640,"Ġcatgut":9641,"hyd":9642,"Ġchristian":9643,"Ġeducated":9644,"Ġyouthful":9645,"Ġpermanently":9646,"Ġinstruct":9647,"Ġaccidentally":9648,"Ġmortal":9649,"Ġpurely":9650,"Ġturkey":9651,"Ġthyreoid":9652,"Ġutterly":9653,"Ġseventy":9654,"Ġpanic":9655,"Ġaccomplish":9656,"Ġruler":9657,"Ġabdomen":9658,"Ġtransportation":9659,"Ġresolutely":9660,"Ġcommittees":9661,"Ġencourage":9662,"Ġhesitation":9663,"Ġcontradiction":9664,"Ġelevated":9665,"Ġepiphysis":9666,"ophil":9667,"Ġpunctured":9668,"Ġforbidden":9669,"Ġforbidding":9670,"Ġtraveling":9671,"Ġvainly":9672,"Ġetc":9673,"Ġmirror":9674,"Ġdorsum":9675,"Ġimpressions":9676,"Ġgathering":9677,"sixth":9678,"Ġbayon":9679,"Ġfragments":9680,"Ġclavicle":9681,"small":9682,"Ġsincerely":9683,"Ġintelligent":9684,"Ġbruised":9685,"Ġdermoids":9686,"Ġcongratulate":9687,"Ġrefrain":9688,"Ġsupervision":9689,"Ġresponded":9690,"Ġincessantly":9691,"clavian":9692,"Ġpilgrims":9693,"copyright":9694,"muscular":9695,"references":9696,"Ġgratitude":9697,"Ġpuritans":9698,"Ġpuckered":9699,"Ġdisagree":9700,"Ġexpansion":9701,"federal":9702,"Ġnikol":9703,"Ġpavlograd":9704,"Ġunreason":9705,"Ġfreemasonry":9706,"Ġvyazma":9707,"Ġplexus":9708,"Ġminimum":9709,"Ġsympathetic":9710,"Ġthreshold":9711,"Ġdisliked":9712,"Ġvertebrae":9713,"Ġguarantee":9714,"Ġchoosing":9715,"Ġmiloradovich":9716,"Ġmentally":9717,"Ġinvariably":9718,".*":9719,"37":9720,"41":9721,"61":9722,"85":9723,"ban":9724,"bet":9725,"cope":9726,"dles":9727,"gone":9728,"iress":9729,"jamin":9730,"kers":9731,"mal":9732,"nia":9733,"oi":9734,"oir":9735,"po":9736,"pent":9737,"pier":9738,"uating":9739,"vol":9740,"ware":9741,"whel":9742,"Ġtun":9743,"Ġtread":9744,"Ġtables":9745,"Ġtheat":9746,"Ġtheories":9747,"Ġom":9748,"Ġowe":9749,"Ġsed":9750,"rey":9751,"really":9752,"Ġwaking":9753,"Ġbass":9754,"Ġbuck":9755,"isible":9756,"Ġcam":9757,"itate":9758,"Ġfis":9759,"Ġfury":9760,"Ġfung":9761,"Ġpag":9762,"Ġmou":9763,"Ġmix":9764,"Ġdict":9765,"Ġdined":9766,"arter":9767,"arosl":9768,"Ġlas":9769,"Ġlotion":9770,"Ġnov":9771,"Ġgut":9772,"Ġgosp":9773,"Ġbehave":9774,"Ġbeaming":9775,"rolled":9776,"oton":9777,"Ġwash":9778,"Ġasks":9779,"Ġstained":9780,"Ġstolen":9781,"Ġratt":9782,"Ġramb":9783,"Ġate":9784,"erer":9785,"Ġconverted":9786,"Ġfriction":9787,"amous":9788,"ulates":9789,"usive":9790,"Ġdeliver":9791,"oore":9792,"eman":9793,"ifle":9794,"Ġpra":9795,"apontov":9796,"Ġallowing":9797,"Ġprosec":9798,"ighted":9799,"Ġalm":9800,"Ġweeping":9801,"Ġlend":9802,"Ġunity":9803,"Ġunsu":9804,"Ġdissem":9805,"Ġdisorgan":9806,"race":9807,"Ġplaster":9808,"elling":9809,"ellow":9810,"Ġclue":9811,"asses":9812,"Ġunderlying":9813,"uble":9814,"Ġremote":9815,"Ġbron":9816,"Ġbride":9817,"Ġindies":9818,"angle":9819,"Ġoverwhel":9820,"Ġafterward":9821,"Ġgrab":9822,"Ġcomput":9823,"Ġcomply":9824,"Ġprelim":9825,"Ġconspir":9826,"Ġflower":9827,"Ġthanked":9828,"Ġgenital":9829,"Ġscent":9830,"Ġsciss":9831,"Ġscared":9832,"Ġmarks":9833,"Ġregulations":9834,"Ġentit":9835,"Ġsubord":9836,"Ġprincesses":9837,"Ġjustified":9838,"Ġrelating":9839,"Ġendotheli":9840,"Ġrefere":9841,"Ġinvading":9842,"Ġinvisible":9843,"Ġpatron":9844,"ceptions":9845,"Ġadvise":9846,"Ġelephantiasis":9847,"Ġplea":9848,"Ġhorn":9849,"Ġbeloved":9850,"Ġcaution":9851,"Ġsuffers":9852,"inski":9853,"Ġparaffin":9854,"Ġredd":9855,"Ġredness":9856,"Ġconvuls":9857,"Ġboast":9858,"Ġdiab":9859,"Ġdiaph":9860,"Ġdecre":9861,"Ġfrontiers":9862,"atically":9863,"Ġreplace":9864,"Ġlabors":9865,"Ġharder":9866,"Ġ1918":9867,"Ġswall":9868,"Ġpromotion":9869,"Ġpromote":9870,"Ġhalt":9871,"yler":9872,"Ġpoetic":9873,"Ġlanding":9874,"Ġfedor":9875,"Ġawoke":9876,"Ġillum":9877,"Ġilleg":9878,"Ġdevice":9879,"Ġhalfway":9880,"Ġobser":9881,"Ġhonour":9882,"Ġhonored":9883,"Ġquicker":9884,"Ġsenior":9885,"Ġgentry":9886,"Ġbarg":9887,"obs":9888,"Ġvalves":9889,"Ġcivilian":9890,"Ġsumm":9891,"Ġsuccession":9892,"Ġregardless":9893,"Ġpenn":9894,"Ġacquire":9895,"Ġvictim":9896,"Ġvictories":9897,"Ġ95":9898,"Ġlowering":9899,"Ġstrikes":9900,"Ġneglected":9901,"Ġbeneficial":9902,"Ġsadly":9903,"Ġjoining":9904,"Ġdoubtful":9905,"Ġsolely":9906,"Ġinterfering":9907,"Ġsolved":9908,"Ġobjections":9909,"Ġexecute":9910,"Ġaimed":9911,"Ġsweat":9912,"Ġschon":9913,"Ġcounsel":9914,"Ġdistributing":9915,"Ġdependence":9916,"Ġtraditions":9917,"Ġsimilarly":9918,"Ġirritated":9919,"Ġaustrians":9920,"Ġsurely":9921,"inguinal":9922,"Ġtariffs":9923,"bler":9924,"Ġstruggling":9925,"Ġmountain":9926,"Ġamendments":9927,"Ġhypertroph":9928,"Ġsubmar":9929,"Ġdiminish":9930,"athem":9931,"Ġbuildings":9932,"Ġconsistence":9933,"Ġtransfer":9934,"Ġcritical":9935,"Ġxviii":9936,"Ġfaithful":9937,"Ġshadows":9938,"Ġquality":9939,"Ġ395":9940,"Ġpockets":9941,"Ġaustral":9942,"Ġdilat":9943,"Ġ481":9944,"Ġwhispering":9945,"Ġmuddy":9946,"Ġrulers":9947,"Ġdeprive":9948,"Ġidle":9949,"Ġferapontov":9950,"Ġinitiative":9951,"third":9952,"Ġreckon":9953,"Ġtraveler":9954,"Ġodour":9955,"Ġpreceded":9956,"Ġabolitionists":9957,"Ġinstruments":9958,"Ġribbon":9959,"Ġalteration":9960,"Ġastonished":9961,"Ġembarrassment":9962,"Ġcustomary":9963,"Ġsleepless":9964,"handed":9965,"Ġneuroma":9966,"Ġneuritis":9967,"Ġinspired":9968,"Ġsemi":9969,"Ġridicule":9970,"Ġdefects":9971,"Ġeruption":9972,"Ġillustrated":9973,"Ġlacerated":9974,"Ġscandal":9975,"Ġlymphangitis":9976,"confident":9977,"Ġsunday":9978,"foot":9979,"Ġbriskly":9980,"Ġhawa":9981,"Ġcommencement":9982,"Ġacknowled":9983,"Ġaggravated":9984,"Ġintrigues":9985,"Ġcompensation":9986,"Ġimpairment":9987,"Ġdistinction":9988,"Ġkitchen":9989,"Ġreparative":9990,"Ġtyphoid":9991,"Ġparalysed":9992,"Ġtranquillity":9993,"Ġdispleased":9994,"Ġgenuine":9995,"Ġfoment":9996,"Ġinsufficient":9997,"Ġstoner":9998,"Ġshrewd":9999,"Ġtwentieth":10000,"Ġscrotum":10001,"Ġcourtyard":10002,"pierre":10003,"Ġscissors":10004,"',":10005,",*":10006,"bons":10007,"bled":10008,"cosis":10009,"gy":10010,"hill":10011,"ien":10012,"jac":10013,"mult":10014,"nitsyn":10015,"oining":10016,"press":10017,"ridge":10018,"tra":10019,"tish":10020,"Ġinguinal":10021,"Ġtick":10022,"hend":10023,"inj":10024,"inas":10025,"inov":10026,"Ġoo":10027,"Ġoun":10028,"Ġsclerosis":10029,"Ġwicked":10030,"ona":10031,"onic":10032,"atitis":10033,"Ġbol":10034,"Ġbast":10035,"Ġbisc":10036,"Ġbiceps":10037,"Ġcance":10038,"Ġhather":10039,"Ġhole":10040,"itic":10041,"enburg":10042,"Ġfan":10043,"Ġpages":10044,"Ġmov":10045,"Ġmant":10046,"Ġmond":10047,"Ġmathem":10048,"Ġdies":10049,"Ġdact":10050,"Ġdwell":10051,"Ġtom":10052,"Ġtore":10053,"anotic":10054,"Ġthri":10055,"Ġluc":10056,"Ġlament":10057,"Ġloses":10058,"Ġheir":10059,"Ġheiress":10060,"omot":10061,"Ġech":10062,"Ġga":10063,"entially":10064,"adays":10065,"rol":10066,"roid":10067,"ste":10068,"Ġwhig":10069,"otomy":10070,"ceeding":10071,"Ġ\"'":10072,"cts":10073,"urysm":10074,"Ġasyl":10075,"Ġstaring":10076,"Ġstyle":10077,"Ġiowa":10078,"etes":10079,"Ġanis":10080,"Ġseed":10081,"Ġsegment":10082,"Ġvind":10083,"Ġshar":10084,"Ġkiev":10085,"Ġexit":10086,"Ġexertion":10087,"Ġexternally":10088,"Ġneville":10089,"agon":10090,"Ġpraise":10091,"Ġchances":10092,"antation":10093,"akov":10094,"abes":10095,"abilities":10096,"Ġprognosis":10097,"Ġarkansas":10098,"Ġjay":10099,"Ġupward":10100,"onezh":10101,"Ġfearing":10102,"Ġdisfig":10103,"Ġknock":10104,"astoid":10105,"Ġagencies":10106,"ibbe":10107,"Ġevils":10108,"Ġquit":10109,"Ġquivering":10110,"elf":10111,"elt":10112,"Ġclung":10113,"Ġtruly":10114,"Ġresent":10115,"early":10116,"Ġbrick":10117,"arer":10118,"haem":10119,"fting":10120,"Ġinferior":10121,"Ġfolly":10122,"Ġcompound":10123,"Ġimpass":10124,"Ġbegging":10125,"Ġwarned":10126,"ervation":10127,"Ġscen":10128,"Ġscan":10129,"Ġdownward":10130,"Ġstraining":10131,"wealth":10132,"Ġregist":10133,"Ġcaribbe":10134,"Ġbetrot":10135,"atting":10136,"Ġsubclavian":10137,"ĠĠĠĠĠĠĠĠĠĠĠĠĠĠĠĠĠĠĠĠĠĠ":10138,"Ġincisions":10139,"Ġretreated":10140,"Ġassigned":10141,"Ġcharges":10142,"Ġrefusing":10143,"Ġreferring":10144,"Ġinvent":10145,"Ġinvade":10146,"Ġinvested":10147,"Ġinvitation":10148,"Ġinvaded":10149,"Ġinviting":10150,"Ġpathetic":10151,"Ġteaching":10152,"Ġtalent":10153,"Ġfathers":10154,"Ġpurity":10155,"Ġmineral":10156,"Ġcaust":10157,"Ġphagocyt":10158,"Ġinsane":10159,"aneus":10160,"aneurysm":10161,"toned":10162,"Ġparallel":10163,"Ġlimitation":10164,"Ġveter":10165,"Ġdiverse":10166,"Ġsecondly":10167,"Ġoppressed":10168,"Ġreplies":10169,"Ġswed":10170,"Ġtransverse":10171,"Ġpromin":10172,"Ġhumor":10173,"Ġ174":10174,"Ġcalculated":10175,"ylitis":10176,"Ġadjust":10177,"Ġsmiles":10178,"Ġsymb":10179,"Ġexcise":10180,"Ġexciting":10181,"Ġawait":10182,"Ġvirulence":10183,"Ġcrowding":10184,"edience":10185,"Ġbaltim":10186,"perioste":10187,"Ġheavier":10188,"Ġconsiderably":10189,"Ġdispatched":10190,"Ġdispersed":10191,"Ġarterio":10192,"Ġhelping":10193,"Ġtemples":10194,"Ġtrench":10195,"Ġhonors":10196,"Ġcareless":10197,"Ġplanter":10198,"Ġdropping":10199,"Ġinvolving":10200,"Ġgeese":10201,"Ġauthors":10202,"Ġfarming":10203,"Ġutmost":10204,"Ġutah":10205,"Ġuttering":10206,"Ġforwards":10207,".'\"":10208,"Ġstartled":10209,"Ġpenal":10210,"romas":10211,"Ġerror":10212,"Ġdisappears":10213,"Ġfifteenth":10214,"Ġindicates":10215,"Ġ90":10216,"Ġ93":10217,"Ġsurprising":10218,"Ġmode":10219,"Ġpoliceman":10220,"Ġcomplains":10221,"Ġboys":10222,"Ġdeadly":10223,"Ġsocieties":10224,"Ġ80":10225,"Ġsolve":10226,"Ġsolitude":10227,"Ġ154":10228,"Ġterritorial":10229,"Ġobjects":10230,"Ġarriving":10231,"Ġattempting":10232,"Ġexpectation":10233,"Ġadministered":10234,"regard":10235,"Ġ114":10236,"Ġarranging":10237,"Ġfemale":10238,"Ġencaps":10239,"Ġpretended":10240,"Ġtraders":10241,"Ġtradition":10242,"Ġbenjamin":10243,"Ġaccompanying":10244,"Ġmisery":10245,"Ġplantation":10246,"trust":10247,"trunk":10248,"Ġmeaningless":10249,"Ġsectional":10250,"Ġdischarged":10251,"Ġgranting":10252,"Ġ1898":10253,"Ġvanity":10254,"Ġ1807":10255,"Ġruptured":10256,"Ġarchd":10257,"Ġspoiled":10258,"Ġperme":10259,"Ġjournal":10260,"Ġflexion":10261,"Ġsovereigns":10262,"Ġxvii":10263,"Ġstirring":10264,"Ġcatching":10265,"Ġconsequences":10266,"Ġdominions":10267,"Ġopportunities":10268,"Ġsplint":10269,"Ġadvantageous":10270,"Ġdavis":10271,"Ġdignified":10272,"Ġfundamental":10273,"aggy":10274,"Ġseventh":10275,"Ġhospitals":10276,"Ġobtaining":10277,"Ġfastened":10278,"Ġexhaust":10279,"Ġproprietor":10280,"Ġproceedings":10281,"Ġarbitrary":10282,"Ġpreceding":10283,"Ġregretted":10284,"Ġcoroner":10285,"Ġroofs":10286,"Ġborzoi":10287,"Ġdrafted":10288,"Ġembolus":10289,"Ġjaws":10290,"Ġremedies":10291,"Ġdissatisfaction":10292,"Ġmasonic":10293,"Ġinspection":10294,"Ġcampfire":10295,"Ġjealousy":10296,"Ġconsolation":10297,"Ġpublished":10298,"Ġsecrecy":10299,"Ġwithdrawal":10300,"Ġprohibition":10301,"Ġpoisoning":10302,"Ġbaths":10303,"Ġuneasily":10304,"Ġmoonlight":10305,"Ġpenetrating":10306,"Ġvertebral":10307,"Ġbinding":10308,"Ġsurvive":10309,"lovski":10310,"Ġdreamed":10311,"Ġelectricity":10312,"Ġtavern":10313,"Ġmurmured":10314,"Ġlunch":10315,"adenoma":10316,"Ġflorida":10317,"Ġsupplemented":10318,"Ġnutr":10319,"Ġstrategic":10320,"broken":10321,"Ġexhibit":10322,"Ġbrandy":10323,"Ġincomplete":10324,"Ġannoyance":10325,"Ġanthrax":10326,"Ġenchanting":10327,"Ġimperfectly":10328,"Ġphilosophy":10329,"onovnitsyn":10330,"Ġeyel":10331,"Ġcontemporaries":10332,"Ġspontaneous":10333,"Ġmeadow":10334,"Ġemerged":10335,"Ġglimpse":10336,"Ġdrubetskoy":10337,"fifth":10338,"Ġaverage":10339,"Ġcabinet":10340,"important":10341,"Ġstalls":10342,"umentary":10343,"Ġinvalid":10344,"defined":10345,"Ġincorpor":10346,"Ġneuralgia":10347,"Ġstrengthened":10348,"Ġvelvet":10349,"Ġinoculation":10350,"Ġatrophy":10351,"Ġescort":10352,"Ġmuseum":10353,"Ġvoronezh":10354,"Ġointment":10355,"Ġvomiting":10356,"documentary":10357,"Ġbismuth":10358,"Ġguerrill":10359,"Ġbachelor":10360,"Ġramballe":10361,"Ġreferend":10362,"Ġhatherley":10363,"Ġdactylitis":10364,"Ġcaribbean":10365,"Ġbetrothed":10366,"22":10367,"63":10368,"69":10369,"89":10370,"away":10371,"ault":10372,"bid":10373,"calle":10374,"die":10375,"diction":10376,"gon":10377,"iency":10378,"ming":10379,"mun":10380,"mler":10381,"ril":10382,"xia":10383,"Ġtint":10384,"Ġtens":10385,"Ġaided":10386,"Ġaides":10387,"Ġok":10388,"Ġsly":10389,"Ġsid":10390,"Ġsedition":10391,"Ġwage":10392,"Ġwaving":10393,"erity":10394,"atzen":10395,"Ġboss":10396,"Ġborders":10397,"isite":10398,"Ġcau":10399,"edient":10400,"iter":10401,"Ġfaced":10402,"Ġfoci":10403,"Ġpave":10404,"Ġink":10405,"Ġdiet":10406,"Ġdug":10407,"Ġtoxic":10408,"asy":10409,"Ġheap":10410,"Ġelic":10411,"Ġerect":10412,"Ġberez":10413,"ado":10414,"Ġrever":10415,"Ġrewards":10416,"rov":10417,"roit":10418,"lysis":10419,"idated":10420,"urrent":10421,"Ġstands":10422,"Ġstocks":10423,"Ġrh":10424,"Ġram":10425,"Ġrud":10426,"Ġrhy":10427,"Ġrattle":10428,"Ġrival":10429,"chond":10430,"Ġnoted":10431,"olit":10432,"Ġorlov":10433,"Ġvangu":10434,"Ġkoz":10435,"Ġkonovnitsyn":10436,"acarp":10437,"Ġsoothing":10438,"Ġsoda":10439,"illaries":10440,"thier":10441,"ifting":10442,"Ġpratzen":10443,"Ġprote":10444,"Ġard":10445,"Ġarts":10446,"Ġaren":10447,"Ġrock":10448,"Ġrodent":10449,"Ġ1000":10450,"Ġunp":10451,"Ġdisper":10452,"Ġdisgu":10453,"Ġdisregard":10454,"Ġmanual":10455,"Ġami":10456,"Ġadoles":10457,"union":10458,"Ġknot":10459,"ptics":10460,"Ġoutbur":10461,"indeed":10462,"Ġevolution":10463,"elly":10464,"Ġmorel":10465,"Ġoffense":10466,"Ġtruce":10467,"Ġtracks":10468,"Ġcounty":10469,"Ġreprod":10470,"ube":10471,"Ġcommit":10472,"Ġblessed":10473,"Ġnatal":10474,"Ġperitone":10475,"Ġinfrequ":10476,"udal":10477,"Ġimposing":10478,"ignation":10479,"phal":10480,"Ġflattered":10481,"Ġflashed":10482,"coats":10483,"Ġwarri":10484,"Ġscore":10485,"ermann":10486,"Ġcolored":10487,"Ġpassages":10488,"Ġmetacarp":10489,"Ġowned":10490,"Ġskirt":10491,"Ġincred":10492,"Ġincubation":10493,"Ġconfl":10494,"Ġsuppressed":10495,"Ġrelaps":10496,"Ġending":10497,"Ġbackwards":10498,"denisov":10499,"Ġpetty":10500,"Ġserf":10501,"Ġlawful":10502,"Ġtales":10503,"Ġeleg":10504,"Ġearliest":10505,"psy":10506,"psis":10507,"Ġmining":10508,"Ġminers":10509,"Ġguest":10510,"Ġguided":10511,"ieties":10512,"Ġcolonization":10513,"Ġwrung":10514,"Ġrevision":10515,"Ġveto":10516,"Ġcaseation":10517,"Ġbehaved":10518,"Ġdecisions":10519,"atics":10520,"Ġxix":10521,"Ġswinging":10522,"Ġthirst":10523,"Ġpoliteness":10524,"Ġcurved":10525,"Ġmerged":10526,"Ġ175":10527,"Ġcalf":10528,"Ġeditions":10529,"Ġadjoining":10530,"axis":10531,"Ġsouthwest":10532,"retion":10533,"ammed":10534,"Ġepoch":10535,"Ġdeclined":10536,"Ġrecognise":10537,"Ġhistories":10538,"Ġbarn":10539,"comp":10540,"Ġplays":10541,"grand":10542,"Ġsuccessor":10543,"Ġsuccessive":10544,"Ġsalic":10545,"Ġstudied":10546,"Ġrespective":10547,"inkled":10548,"Ġsuperint":10549,"Ġembrace":10550,"Ġ73":10551,"Ġneglect":10552,"Ġneglig":10553,"Ġdespised":10554,"Ġcomplained":10555,"Ġcompliance":10556,"Ġholl":10557,"Ġtenderly":10558,"Ġlowest":10559,"Ġdimmler":10560,"Ġtorment":10561,"Ġsouls":10562,"Ġcreate":10563,"Ġmales":10564,"Ġ1862":10565,"Ġescaping":10566,"ĠĠĠĠĠĠĠĠĠĠĠĠĠĠĠĠĠĠĠĠĠĠĠĠĠĠĠĠĠĠĠĠĠ":10567,"Ġfeminine":10568,"Ġdissolved":10569,"Ġbreaks":10570,"Ġessentially":10571,"Ġsignificantly":10572,"Ġ129":10573,"Ġbroadshe":10574,"chester":10575,"trunks":10576,"Ġ1913":10577,"Ġmeantime":10578,"Ġsuspect":10579,"Ġsternum":10580,"Ġvicious":10581,"Ġcarolinas":10582,"Ġsynovitis":10583,"Ġtroubled":10584,"Ġfrozen":10585,"Ġmanifesto":10586,"Ġenjoying":10587,"Ġsubmiss":10588,"Ġspecim":10589,"Ġbatteries":10590,"Ġ465":10591,"Ġdanube":10592,"Ġoneself":10593,"local":10594,"Ġyields":10595,"Ġxxv":10596,"Ġamput":10597,"Ġemptied":10598,"Ġpitch":10599,"Ġlatest":10600,"grafting":10601,"Ġventure":10602,"Ġjunctions":10603,"Ġtoxaemia":10604,"Ġcontemptuously":10605,"Ġaccidental":10606,"Ġadventures":10607,"Ġmotive":10608,"Ġdollar":10609,"Ġproclaimed":10610,"Ġundergoes":10611,"Ġforbade":10612,"Ġensued":10613,"looked":10614,"Ġsprings":10615,"Ġprofoundly":10616,"Ġgrasped":10617,"Ġadvocated":10618,"bacill":10619,"Ġancients":10620,"Ġquartermaster":10621,"Ġrecurrence":10622,"Ġcarbon":10623,"Ġenthusiastic":10624,"Ġwider":10625,"Ġtolly":10626,"Ġcraw":10627,"Ġpigmented":10628,"Ġcondemn":10629,"Ġsighing":10630,"Ġproceeded":10631,"Ġhesitated":10632,"Ġintimacy":10633,"Ġcollecting":10634,"Ġvoluntary":10635,"Ġalterations":10636,"Ġdisplayed":10637,"Ġtribute":10638,"Ġuncertainty":10639,"Ġattentive":10640,"Ġtutor":10641,"Ġdorsal":10642,"Ġwrinkles":10643,"Ġingen":10644,"Ġprohibited":10645,"Ġobliterated":10646,"Ġfragment":10647,"Ġridiculous":10648,"arthritis":10649,"Ġtwitching":10650,"Ġaccurately":10651,"Ġwiped":10652,"Ġwiping":10653,"Ġneighbourhood":10654,"Ġexercised":10655,"Ġdiamond":10656,"piti":10657,"Ġstooped":10658,"Ġrustle":10659,"Ġnoiseless":10660,"Ġpupil":10661,"Ġbridges":10662,"Ġdiversity":10663,"Ġfluctuation":10664,"secondary":10665,"Ġblessing":10666,"Ġradiogram":10667,"Ġceremony":10668,"Ġlantern":10669,"Ġignorance":10670,"escence":10671,"Ġsequel":10672,"Ġosseous":10673,"Ġperpetual":10674,"Ġinterpret":10675,"Ġcylinders":10676,"Ġfistula":10677,"Ġstockings":10678,"Ġabruptly":10679,"Ġjurisdiction":10680,"Ġdakota":10681,"Ġnewcomer":10682,"Ġcalamity":10683,"woman":10684,"Ġdrummer":10685,"Ġtrophic":10686,"Ġdrooping":10687,"Ġallegiance":10688,"Ġsulph":10689,"Ġfertile":10690,"Ġpreliminary":10691,"Ġgenitals":10692,"Ġdilatation":10693,"multiple":10694,"pressure":10695,"Ġmovable":10696,"Ġmonday":10697,"Ġbaltimore":10698,"Ġreferendum":10699,"callender":10700,"Ġpavement":10701,"Ġberezina":10702,"Ġvanguard":10703,"Ġkozlovski":10704,"Ġdisperse":10705,"Ġoutburst":10706,"-+":10707,"ais":10708,"bat":10709,"cr":10710,"cot":10711,"cart":10712,"cong":10713,"din":10714,"down":10715,"iating":10716,"jud":10717,"making":10718,"nor":10719,"pic":10720,"vo":10721,"writ":10722,"waiting":10723,"Ġtested":10724,"Ġtils":10725,"Ġtattered":10726,"Ġtapping":10727,"Ġtingling":10728,"hered":10729,"Ġari":10730,"ince":10731,"inals":10732,"Ġsisters":10733,"rehend":10734,"Ġwy":10735,"Ġwives":10736,"Ġwaves":10737,"onial":10738,"isition":10739,"Ġhoney":10740,"Ġfame":10741,"Ġpok":10742,"Ġmol":10743,"Ġmand":10744,"Ġmalle":10745,"inge":10746,"Ġinse":10747,"Ġinco":10748,"Ġdata":10749,"Ġduly":10750,"Ġthrill":10751,"Ġlur":10752,"Ġlaminated":10753,"Ġhealed":10754,"ombe":10755,"Ġgy":10756,"Ġgor":10757,"Ġbelt":10758,"Ġreass":10759,"stra":10760,"imper":10761,"cet":10762,"cell":10763,"ldt":10764,"aying":10765,"Ġire":10766,"Ġrav":10767,"chi":10768,"Ġnotion":10769,"Ġhaz":10770,"Ġfringes":10771,"oloch":10772,"allic":10773,"Ġseiz":10774,"Ġselling":10775,"Ġvag":10776,"Ġvoy":10777,"Ġshak":10778,"Ġshaped":10779,"Ġkoloch":10780,"aciously":10781,"Ġexostosis":10782,"thm":10783,"Ġnebraska":10784,"oven":10785,"ections":10786,"ousing":10787,"Ġalert":10788,"Ġarouse":10789,"Ġarising":10790,"Ġjes":10791,"Ġabuse":10792,"Ġfeudal":10793,"Ġunint":10794,"Ġunseen":10795,"Ġuneven":10796,"Ġunbroken":10797,"Ġdisast":10798,"Ġdisaster":10799,"Ġammun":10800,"Ġadler":10801,"ĠĠĠĠĠĠĠĠĠĠĠĠĠĠ":10802,"Ġmyx":10803,"Ġoutst":10804,"ountered":10805,"Ġages":10806,"Ġfreight":10807,"Ġevoked":10808,"Ġworried":10809,"Ġquilt":10810,"Ġquivered":10811,"oding":10812,"Ġclam":10813,"Ġclause":10814,"Ġclash":10815,"Ġapportion":10816,"Ġoffend":10817,"cip":10818,"Ġtraining":10819,"ageya":10820,"Ġresident":10821,"Ġcounting":10822,"earing":10823,"Ġlique":10824,"Ġblank":10825,"Ġblows":10826,"Ġbrush":10827,"Ġindec":10828,"Ġperse":10829,"Ġshouldn":10830,"Ġglittered":10831,"udge":10832,"udence":10833,"Ġimpart":10834,"Ġimpract":10835,"Ġattending":10836,"Ġexpose":10837,"Ġexpensive":10838,"Ġflut":10839,"Ġpreserved":10840,"ensed":10841,"Ġmenace":10842,"orsed":10843,"wey":10844,"Ġregards":10845,"Ġregulate":10846,"Ġthrong":10847,"Ġcaries":10848,"naim":10849,"Ġoccasions":10850,"Ġenters":10851,"Ġdesirable":10852,"Ġcolumb":10853,"Ġsubl":10854,"Ġ318":10855,"ails":10856,"ailing":10857,"vingly":10858,"Ġheadache":10859,"Ġjustification":10860,"rugg":10861,"ĠĠĠĠĠĠĠĠĠĠĠĠĠĠĠĠĠĠĠĠĠĠĠĠĠ":10862,"Ġinches":10863,"icken":10864,"Ġcapillaries":10865,"oscombe":10866,"Ġcorners":10867,"Ġrefuge":10868,"Ġreflections":10869,"Ġtechn":10870,"Ġesp":10871,"Ġ56":10872,"Ġlasting":10873,"Ġforemost":10874,"Ġnapoleonic":10875,"Ġhorrified":10876,"Ġboracic":10877,"Ġpaine":10878,"Ġpainless":10879,"Ġvariable":10880,"Ġmorris":10881,"Ġterrified":10882,"Ġdoorway":10883,"Ġsinister":10884,"ships":10885,"Ġpresenting":10886,"Ġboiling":10887,"Ġfewer":10888,"Ġveil":10889,"Ġveget":10890,"Ġdiary":10891,"Ġreceives":10892,"Ġreceipt":10893,"Ġworkmen":10894,"Ġswarm":10895,"Ġcommonwealth":10896,"Ġoperate":10897,"Ġproposition":10898,"Ġprevailed":10899,"Ġlighted":10900,"Ġburg":10901,"Ġangioma":10902,"Ġuntr":10903,"Ġpersonage":10904,"Ġbrighter":10905,"Ġadjusted":10906,"forced":10907,"Ġwinding":10908,"Ġvirulent":10909,"Ġorganiz":10910,"Ġdevices":10911,"Ġmaine":10912,"Ġdisposed":10913,"Ġtreacher":10914,"Ġ63":10915,"Ġsettling":10916,"Ġplanning":10917,"Ġbarbar":10918,"Ġgeograph":10919,"Ġuterus":10920,"Ġsummary":10921,"Ġvillain":10922,"Ġaccordance":10923,"Ġpenis":10924,"Ġdescribing":10925,"Ġvictor":10926,"Ġvictorious":10927,"Ġpowdered":10928,"Ġhaematoma":10929,"Ġhaemophil":10930,"Ġindications":10931,"Ġantagon":10932,"Ġ77":10933,"Ġmodel":10934,"Ġsadness":10935,"Ġforgiveness":10936,"Ġcreation":10937,"Ġconcerns":10938,"Ġincludes":10939,"Ġthickness":10940,"Ġ153":10941,"Ġwriter":10942,"Ġwinning":10943,"Ġsweeping":10944,"Ġpalate":10945,"Ġ136":10946,"Ġschoss":10947,"Ġurging":10948,"Ġencountered":10949,"Ġfibrin":10950,"Ġnodular":10951,"Ġtrusted":10952,"Ġbanker":10953,"Ġextensor":10954,"Ġviolation":10955,"Ġplanted":10956,"Ġironically":10957,"Ġosteoma":10958,"Ġauthorizing":10959,"trans":10960,"Ġdiscussions":10961,"Ġmulti":10962,"prognosis":10963,"Ġperformance":10964,"Ġderive":10965,"Ġnoticeable":10966,"Ġsmoking":10967,"Ġcostume":10968,"Ġconvince":10969,"Ġfluids":10970,"Ġscraping":10971,"Ġ328":10972,"Ġmanifestation":10973,"Ġconceive":10974,"ĠĠĠĠĠĠĠĠĠĠĠĠĠĠĠĠĠĠĠĠĠĠĠĠĠĠĠĠĠ":10975,"Ġnavigation":10976,"Ġboxes":10977,"Ġobligation":10978,"Ġbursting":10979,"without":10980,"Ġcommissioners":10981,"Ġdeceived":10982,"Ġ523":10983,"Ġtriumphant":10984,"Ġ1870":10985,"glaf":10986,"Ġmagnific":10987,"Ġeducational":10988,"Ġ269":10989,"Ġsplit":10990,"Ġreproached":10991,"Ġventil":10992,"Ġpictured":10993,"Ġhanged":10994,"Ġinstructed":10995,"Ġcontemptuous":10996,"Ġtsarev":10997,"Ġsafeguard":10998,"Ġundertake":10999,"Ġpipes":11000,"Ġ1787":11001,"Ġresource":11002,"skin":11003,"Ġsprain":11004,"Ġqueer":11005,"Ġdescending":11006,"Ġliterature":11007,"Ġrecurrent":11008,"Ġspectacle":11009,"Ġcraft":11010,"Ġshutters":11011,"Ġflourished":11012,"Ġproprietors":11013,"Ġdusty":11014,"oxide":11015,"Ġhesitating":11016,"Ġskillful":11017,"Ġdigital":11018,"Ġelevation":11019,"Ġfixing":11020,"Ġovertook":11021,"Ġribs":11022,"Ġscotland":11023,"Ġpelageya":11024,"Ġstrictly":11025,"Ġdeliberate":11026,"Ġreleased":11027,"Ġreproachfully":11028,"Ġcrackling":11029,"Ġultimate":11030,"Ġreluctant":11031,"Ġsecrets":11032,"Ġloyalty":11033,"Ġpondered":11034,"Ġanalysis":11035,"Ġimpatience":11036,"Ġbriefly":11037,"Ġinfinitely":11038,"Ġtransformation":11039,"Ġprosperous":11040,"Ġwelcome":11041,"Ġcoward":11042,"Ġtrifles":11043,"Ġaccurate":11044,"Ġneutrality":11045,"Ġamazed":11046,"Ġdreams":11047,"Ġexercises":11048,"Ġinauguration":11049,"Ġinaugurated":11050,"Ġmurmur":11051,"Ġdrugs":11052,"adenitis":11053,"www":11054,"Ġstooping":11055,"Ġpupils":11056,"Ġstitches":11057,"Ġunconstitutional":11058,"Ġchannel":11059,"Ġlawyer":11060,"Ġborrowed":11061,"Ġvaccine":11062,"Ġincapable":11063,"Ġpoliticians":11064,"Ġsymmetrical":11065,"Ġawakened":11066,"Ġinheritance":11067,"Ġglobe":11068,"Ġdisconcer":11069,"Ġrobbery":11070,"Ġcustoms":11071,"Ġargued":11072,"Ġestimated":11073,"Ġbewildered":11074,"Ġsemenovsk":11075,"Ġimpulses":11076,"Ġopenshaw":11077,"Ġharvest":11078,"synovitis":11079,"powder":11080,"Ġinsidious":11081,"Ġlandowner":11082,"gangrene":11083,"Ġdisgust":11084,"Ġoutposts":11085,"Ġapparatus":11086,"Ġdiscomfort":11087,"Ġfedorovna":11088,"Ġnutrition":11089,"Ġrhythm":11090,"Ġtilsit":11091,"Ġariz":11092,"Ġkolocha":11093,"Ġammunition":11094,"Ġimpracticable":11095,").=--":11096,"34":11097,"68":11098,"_)":11099,"bs":11100,"bly":11101,"bel":11102,"cus":11103,"dem":11104,"fin":11105,"finger":11106,"gre":11107,"ghed":11108,"great":11109,"hung":11110,"iour":11111,"lis":11112,"lah":11113,"mother":11114,"rat":11115,"somet":11116,"va":11117,"women":11118,"yellow":11119,"Ġ0":11120,"Ġtid":11121,"Ġtie":11122,"Ġtug":11123,"Ġtilled":11124,"Ġtune":11125,"Ġtyler":11126,"Ġawhile":11127,"Ġakin":11128,"Ġov":11129,"Ġoats":11130,"Ġogg":11131,"Ġsaint":11132,"Ġwattle":11133,"erness":11134,"onia":11135,"Ġboscombe":11136,"Ġcul":11137,"Ġhood":11138,"itively":11139,"Ġfow":11140,"Ġfuss":11141,"Ġps":11142,"Ġpect":11143,"Ġpear":11144,"Ġpicking":11145,"Ġmes":11146,"Ġtories":11147,"asper":11148,"Ġthiers":11149,"Ġthunder":11150,"llous":11151,"Ġnit":11152,"Ġheated":11153,"Ġgems":11154,"aline":11155,"adder":11156,"lyukov":11157,"otions":11158,"seem":11159,"cean":11160,"Ġonline":11161,"Ġwasting":11162,"Ġirene":11163,"Ġye":11164,"Ġanc":11165,"Ġrings":11166,"chinson":11167,"Ġnotably":11168,"Ġfraud":11169,"iles":11170,"Ġseal":11171,"Ġsealed":11172,"Ġdearest":11173,"Ġvul":11174,"Ġvile":11175,"Ġvlad":11176,"anda":11177,"andrew":11178,"Ġshan":11179,"Ġshaggy":11180,"acia":11181,"Ġherd":11182,"Ġexempt":11183,"Ġexasper":11184,"Ġsok":11185,"Ġsoaked":11186,"agues":11187,"Ġchis":11188,"Ġchlor":11189,"Ġproc":11190,"Ġproving":11191,"istrib":11192,"igible":11193,"Ġarises":11194,"Ġwholly":11195,"Ġspy":11196,"Ġspind":11197,"Ġmeat":11198,"Ġmeal":11199,"Ġmelyukov":11200,"Ġintegr":11201,"Ġfees":11202,"Ġfeeding":11203,"Ġuniting":11204,"Ġunwill":11205,"Ġunjust":11206,"Ġprinting":11207,"Ġdiscer":11208,"iven":11209,"Ġadored":11210,"ĠĠĠĠĠĠĠĠĠĠĠĠĠĠĠ":11211,"Ġknaps":11212,"Ġcock":11213,"Ġoutstanding":11214,"Ġenfranch":11215,"Ġclatter":11216,"Ġclimate":11217,"endent":11218,"Ġtram":11219,"Ġtramp":11220,"Ġunderm":11221,"Ġreserved":11222,"Ġcommences":11223,"Ġblaz":11224,"Ġblowing":11225,"Ġremind":11226,"Ġindisp":11227,"Ġoverse":11228,"Ġbeck":11229,"epithe":11230,"Ġnowadays":11231,"haworth":11232,"Ġperone":11233,"Ġgrains":11234,"phy":11235,"Ġflame":11236,"Ġflushing":11237,"Ġdaylight":11238,"Ġscur":11239,"Ġscant":11240,"Ġstring":11241,"Ġstrangers":11242,"Ġsurm":11243,"okes":11244,"Ġgreatcoat":11245,"athy":11246,"Ġdescent":11247,"Ġdeserved":11248,"Ġ1816":11249,"Ġ1848":11250,"Ġmetallic":11251,"Ġstillness":11252,"rup":11253,"Ġdistended":11254,"ĠĠĠĠĠĠĠĠĠĠĠĠĠĠĠĠĠĠĠĠĠĠĠ":11255,"hess":11256,"Ġretic":11257,"Ġdiffer":11258,"Ġassault":11259,"Ġengross":11260,"Ġpetitions":11261,"Ġpatch":11262,"Ġpowerless":11263,"Ġexpressions":11264,"Ġrests":11265,"Ġlegitimate":11266,"Ġserves":11267,"Ġpharynx":11268,"Ġguilt":11269,"Ġvariations":11270,"Ġinspir":11271,"Ġcontinual":11272,"Ġirrep":11273,"Ġconstituted":11274,"Ġfinances":11275,"Ġredistrib":11276,"Ġconvict":11277,"shaven":11278,"Ġcran":11279,"Ġboards":11280,"Ġboils":11281,"Ġtrodden":11282,"Ġdetachments":11283,"Ġoppress":11284,"Ġtendencies":11285,"Ġtransaction":11286,"Ġpromises":11287,"Ġprevents":11288,"Ġlighting":11289,"Ġpresidents":11290,"Ġpoet":11291,"Ġlanded":11292,"Ġkindness":11293,"Ġcollapse":11294,"Ġfooting":11295,"although":11296,"Ġdifferentiated":11297,"Ġcharacterized":11298,"Ġvaska":11299,"Ġheartily":11300,"Ġheavens":11301,"Ġbux":11302,"Ġbuying":11303,"Ġfibula":11304,"Ġdeepest":11305,"Ġequival":11306,"Ġ64":11307,"Ġ67":11308,"Ġemployer":11309,"Ġplanned":11310,"Ġpleasantly":11311,"Ġrealizing":11312,"Ġsnatched":11313,"Ġhairs":11314,"Ġexceptions":11315,"Ġseparates":11316,"Ġseparately":11317,"Ġdinners":11318,"Ġ162":11319,"Ġjoys":11320,"Ġdebates":11321,"Ġverd":11322,"Ġ92":11323,"Ġstripped":11324,"Ġ101":11325,"Ġ109":11326,"Ġfreedmen":11327,"Ġmistakes":11328,"Ġprobe":11329,"Ġeighth":11330,"Ġceiling":11331,"Ġrubbish":11332,"Ġ86":11333,"Ġmalign":11334,"Ġsolic":11335,"Ġ151":11336,"Ġbrightened":11337,"before":11338,"Ġfatig":11339,"Ġsupporting":11340,"Ġfixedly":11341,"Ġpretending":11342,"Ġcommunicate":11343,"Ġprayers":11344,"Ġabandonment":11345,"Ġmisunder":11346,"Ġmisfortun":11347,"Ġmaiden":11348,"Ġstretch":11349,"black":11350,"Ġ1910":11351,"Ġrestrict":11352,"Ġbirds":11353,"Ġgrandfather":11354,"Ġperforming":11355,"Ġdiagnosed":11356,"Ġstruggled":11357,"Ġsciences":11358,"Ġbondage":11359,"Ġvanqu":11360,"Ġ201":11361,"Ġ1806":11362,"Ġpersonality":11363,"Ġthorax":11364,"Ġcordial":11365,"Ġharmony":11366,"Ġchestnut":11367,"Ġ438":11368,"Ġcouch":11369,"Ġvirtuous":11370,"Ġyielded":11371,"Ġunfav":11372,"Ġ271":11373,"Ġ502":11374,"Ġpurchased":11375,"Ġxxx":11376,"Ġwondering":11377,"Ġshoot":11378,"Ġpitiful":11379,"Ġlatin":11380,"Ġ492":11381,"Ġpersistence":11382,"Ġreveal":11383,"Ġfortunately":11384,"Ġhutchinson":11385,"Ġexchanging":11386,"Ġpredisp":11387,"certainly":11388,"Ġbitterness":11389,"Ġinstituted":11390,"Ġundertaken":11391,"Ġbelongs":11392,"Ġirregularly":11393,"Ġturk":11394,"Ġsloughing":11395,"Ġmaintaining":11396,"Ġhydat":11397,"Ġcicatrix":11398,"Ġadvocate":11399,"Ġtoller":11400,"Ġwilderness":11401,"Ġranges":11402,"Ġcondemning":11403,"Ġstimulated":11404,"Ġinvestig":11405,"Ġlumber":11406,"Ġfacult":11407,"Ġawkwardly":11408,"Ġwoolen":11409,"Ġquantities":11410,"Ġpossessions":11411,"Ġvaguely":11412,"Ġmobility":11413,"ckinridge":11414,"Ġalbany":11415,"Ġvalued":11416,"Ġaltar":11417,"Ġdisplaying":11418,"organisms":11419,"Ġabundance":11420,"Ġuneasy":11421,"Ġmedulla":11422,"fibromatosis":11423,"Ġgleamed":11424,"Ġtwitched":11425,"Ġerrors":11426,"Ġintelligence":11427,"ariat":11428,"Ġscrewed":11429,"Ġdesigns":11430,"varieties":11431,"Ġfiercely":11432,"equal":11433,"whether":11434,"Ġtonight":11435,"Ġwandered":11436,"Ġmontana":11437,"Ġaristocratic":11438,"Ġsparkling":11439,"Ġmitenka":11440,"Ġproximal":11441,"Ġproximity":11442,"Ġadvisable":11443,"Ġgroaned":11444,"Ġstreptococci":11445,"Ġimpatiently":11446,"Ġcigar":11447,"Ġperspiring":11448,"Ġgonorrhoeal":11449,"Ġpustule":11450,"Ġgrievances":11451,"diffuse":11452,"Ġstaphylococcus":11453,"Ġspinning":11454,"Ġmonopoly":11455,"Ġmagnanimity":11456,"Ġmourn":11457,"Ġoriental":11458,"Ġstubborn":11459,"Ġunchanged":11460,"Ġtelegr":11461,"Ġbohemia":11462,"Ġskiagrams":11463,"Ġvenezuela":11464,"Ġfutile":11465,"Ġspirochaete":11466,"Ġadenoma":11467,"Ġcausation":11468,"Ġsatisfy":11469,"Ġsustain":11470,"Ġshelter":11471,"besides":11472,"Ġwondered":11473,"Ġureth":11474,"thalm":11475,"Ġplunged":11476,"Ġlaunched":11477,"Ġdisagreeable":11478,"Ġpaget":11479,"Ġentitled":11480,"Ġreddish":11481,"Ġasylum":11482,"Ġanisya":11483,"Ġarchduke":11484,"Ġguerrilla":11485,"Ġelicited":11486,"bacillus":11487,"Ġireland":11488,"Ġseizure":11489,"Ġdisastrous":11490,"Ġarizona":11491,"lahoma":11492,"Ġvladim":11493,"Ġequivalent":11494,"Ġmisfortunes":11495,"'?\"":11496,"05":11497,"bus":11498,"bag":11499,"both":11500,"ca":11501,"cor":11502,"cour":11503,"drew":11504,"dling":11505,"free":11506,"hil":11507,"jack":11508,"lance":11509,"love":11510,"part":11511,"pglaf":11512,"rust":11513,"sed":11514,"sch":11515,"sclerosis":11516,"uity":11517,"ucci":11518,"wr":11519,"wounds":11520,"Ġtin":11521,"held":11522,"Ġaward":11523,"Ġowed":11524,"Ġsess":11525,"Ġwint":11526,"erating":11527,"erob":11528,"Ġbou":11529,"Ġbite":11530,"isons":11531,"Ġcared":11532,"Ġcush":11533,"Ġcash":11534,"Ġfain":11535,"Ġfant":11536,"Ġfits":11537,"Ġfanci":11538,"Ġfancies":11539,"Ġpatted":11540,"escend":11541,"Ġinch":11542,"Ġinability":11543,"Ġdit":11544,"Ġdine":11545,"Ġdirt":11546,"Ġdashing":11547,"Ġdangers":11548,"Ġtoil":11549,"Ġtoler":11550,"orous":11551,"Ġlid":11552,"Ġlap":11553,"Ġlivid":11554,"Ġlumb":11555,"Ġnucle":11556,"Ġheredit":11557,"icing":11558,"icates":11559,"Ġerected":11560,"Ġejac":11561,"Ġgou":11562,"Ġgaining":11563,"Ġgarr":11564,"alo":11565,"added":11566,"Ġrecess":11567,"Ġreapp":11568,"othed":11569,"cting":11570,"Ġwithdrew":11571,"lding":11572,"ayed":11573,"Ġascertain":11574,"Ġsting":11575,"Ġstore":11576,"Ġstap":11577,"Ġstumbled":11578,"Ġry":11579,"Ġrand":11580,"Ġconcess":11581,"Ġfruits":11582,"olar":11583,"Ġseam":11584,"Ġdevel":11585,"Ġsuic":11586,"riers":11587,"riend":11588,"Ġshake":11589,"Ġshattered":11590,"Ġshifting":11591,"Ġkarp":11592,"Ġexost":11593,"Ġexclude":11594,"Ġbutler":11595,"thor":11596,"Ġcomment":11597,"again":11598,"ifice":11599,"Ġsab":11600,"Ġsax":11601,"Ġsabers":11602,"Ġsaphe":11603,"Ġchains":11604,"uma":11605,"umps":11606,"abby":11607,"Ġardent":11608,"Ġross":11609,"Ġintent":11610,"Ġability":11611,"Ġabomin":11612,"Ġunbut":11613,"Ġunnot":11614,"Ġunique":11615,"Ġdisd":11616,"Ġdisorders":11617,"Ġdisadv":11618,"iva":11619,"ivier":11620,"Ġtheirs":11621,"raz":11622,"unau":11623,"ureus":11624,"Ġknit":11625,"Ġcode":11626,"Ġmayor":11627,"Ġoutbreak":11628,"Ġenabled":11629,"Ġplates":11630,"Ġplunder":11631,"keep":11632,"iber":11633,"Ġevac":11634,"Ġappet":11635,"Ġcontused":11636,"Ġcontented":11637,"Ġcontaminated":11638,"Ġoffers":11639,"Ġpiercing":11640,"assium":11641,"Ġpartners":11642,"Ġtimber":11643,"Ġemac":11644,"Ġcommod":11645,"Ġbland":11646,"Ġremorse":11647,"Ġoverfl":11648,"Ġtwist":11649,"Ġhanding":11650,"Ġhandful":11651,"Ġhandling":11652,"Ġperons":11653,"Ġperceptible":11654,"Ġgrin":11655,"Ġglove":11656,"Ġeveryday":11657,"Ġprey":11658,"Ġprejud":11659,"Ġprecip":11660,"Ġattachment":11661,"Ġexposing":11662,"Ġlongus":11663,"Ġscout":11664,"Ġdowncast":11665,"Ġstrained":11666,"Ġslack":11667,"Ġregain":11668,"Ġsyring":11669,"Ġobedience":11670,"Ġentrench":11671,"Ġmustn":11672,"Ġactively":11673,"Ġsubj":11674,"neur":11675,"Ġsket":11676,"Ġpolk":11677,"ĠĠĠĠĠĠĠĠĠĠĠĠĠĠĠĠĠ":11678,"ĠĠĠĠĠĠĠĠĠĠĠĠĠĠĠĠĠĠĠ":11679,"Ġconfer":11680,"Ġsuppress":11681,"Ġreliance":11682,"Ġretal":11683,"ogue":11684,"Ġdifferences":11685,"Ġendowed":11686,"Ġcondescend":11687,"Ġcharcot":11688,"cera":11689,"Ġcourte":11690,"Ġtalks":11691,"Ġbloody":11692,"Ġpurification":11693,"Ġdemarc":11694,"undered":11695,"Ġsimulate":11696,"Ġminnes":11697,"Ġministry":11698,"Ġguid":11699,"Ġlimp":11700,"Ġconval":11701,"itsa":11702,"Ġcrust":11703,"Ġboiled":11704,"Ġorderlies":11705,"Ġdecade":11706,"Ġoppose":11707,"Ġsentiments":11708,"Ġ193":11709,"Ġ194":11710,"Ġ195":11711,"Ġswung":11712,"arsal":11713,"Ġimmob":11714,"Ġcommonplace":11715,"Ġtransition":11716,"Ġtransmit":11717,"Ġrapture":11718,"Ġviscera":11719,"Ġpersonages":11720,"Ġlocomot":11721,"Ġdivide":11722,"Ġtermed":11723,"althy":11724,"ronted":11725,"Ġsingers":11726,"Ġdevital":11727,"Ġdirector":11728,"cluding":11729,"Ġ65":11730,"Ġcarelessly":11731,"Ġlawn":11732,"Ġsenile":11733,"Ġsoften":11734,"Ġsoftening":11735,"Ġhairy":11736,"Ġimpossibility":11737,"Ġsuccumb":11738,"Ġforceps":11739,"Ġvalid":11740,"Ġelectro":11741,"Ġlocality":11742,"Ġseparating":11743,"Ġulcerated":11744,"Ġerie":11745,"going":11746,"Ġimagining":11747,"Ġzak":11748,"Ġrider":11749,"Ġacquisition":11750,"Ġrespecting":11751,"Ġrespectable":11752,"Ġsuperadded":11753,"autions":11754,"Ġwhisky":11755,"Ġembroid":11756,"Ġquarre":11757,"Ġcyril":11758,"Ġexclusion":11759,"Ġ82":11760,",'\"":11761,"Ġenlight":11762,"Ġ158":11763,"Ġcopying":11764,"Ġwritings":11765,"ĠĠĠĠĠĠĠĠĠĠĠĠĠĠĠĠĠĠĠĠĠĠĠĠĠĠĠĠĠĠĠĠĠĠĠ":11766,"Ġboundaries":11767,"Ġhaemorrhages":11768,"Ġcombat":11769,"Ġlifeless":11770,"Ġ130":11771,"Ġ139":11772,"Ġbeginnings":11773,"Ġ117":11774,"Ġdissensions":11775,"Ġcommunicated":11776,"Ġbandages":11777,"coloured":11778,"Ġirritable":11779,"Ġdetermining":11780,"Ġenlarge":11781,"Ġviolently":11782,"Ġosteo":11783,"Ġeconom":11784,"Ġ147":11785,"Ġimplied":11786,"Ġcitizenship":11787,"proach":11788,"Ġgroans":11789,"Ġpeculiarly":11790,"Ġconvincing":11791,"Ġscient":11792,"Ġphysiological":11793,"Ġsocialists":11794,"Ġparaly":11795,"Ġbraunau":11796,"Ġapartments":11797,"Ġspores":11798,"Ġspokes":11799,"Ġdiminishing":11800,"asket":11801,"Ġstationary":11802,"Ġspecies":11803,"Ġcathed":11804,"Ġvirtues":11805,"Ġ426":11806,"Ġcastle":11807,"Ġ501":11808,"Ġchoked":11809,"Ġsplashing":11810,"Ġ239":11811,"Ġpitied":11812,"Ġlatent":11813,"Ġconclusions":11814,"Ġ491":11815,"Ġjerked":11816,"Ġdoctrines":11817,"Ġresolve":11818,"Ġglandular":11819,"Ġscreen":11820,"Ġpotassium":11821,"Ġgummata":11822,"Ġconservation":11823,"Ġpatriots":11824,"Ġpriests":11825,"Ġbitterly":11826,"Ġmotives":11827,"Ġbrownish":11828,"Ġpillows":11829,"Ġ1789":11830,"Ġdisturbances":11831,"egration":11832,"Ġunpleasantly":11833,"Ġroutes":11834,"Ġsuspended":11835,"Ġruled":11836,"Ġgrasping":11837,"Ġdeduce":11838,"Ġwhites":11839,"Ġfolds":11840,"Ġ382":11841,"Ġembracing":11842,"Ġmonarchs":11843,"Ġshrill":11844,"Ġcarbuncle":11845,"Ġhinder":11846,"Ġflowers":11847,"Ġcardiac":11848,"Ġprussian":11849,"Ġexceeded":11850,"Ġcriminals":11851,"Ġproofs":11852,"Ġkeenly":11853,"Ġsimplest":11854,"Ġunnaturally":11855,"Ġadmiration":11856,"Ġsanction":11857,"Ġsongs":11858,"Ġphrases":11859,"anese":11860,"Ġincidents":11861,"Ġgreyish":11862,"Ġcontroversies":11863,"Ġenvy":11864,"Ġprivilege":11865,"Ġberthier":11866,"Ġchondromas":11867,"Ġinstinctively":11868,"Ġobliteration":11869,"Ġphilippine":11870,"Ġconfederates":11871,"Ġkrems":11872,"Ġcarpent":11873,"Ġrendering":11874,"Ġemphas":11875,"Ġprecision":11876,"Ġprecautions":11877,"Ġhomesteads":11878,"Ġhuntsmen":11879,"Ġalternative":11880,"Ġgoverning":11881,"Ġcommissariat":11882,"Ġcalcification":11883,"Ġneighbouring":11884,"Ġpersuade":11885,"Ġpersuaded":11886,"Ġinvolvement":11887,"lymphang":11888,"Ġfrancisco":11889,"Ġvehicle":11890,"Ġclutching":11891,"Ġfibrosa":11892,"Ġwandering":11893,"Ġsubstitute":11894,"atellar":11895,"Ġchannels":11896,"Ġpaulucci":11897,"Ġwarts":11898,"Ġascended":11899,"Ġragged":11900,"Ġparticipation":11901,"Ġrescue":11902,"Ġdecorations":11903,"commission":11904,"Ġsarcom":11905,"Ġnomination":11906,"Ġsanta":11907,"Ġgrenad":11908,"Ġperfection":11909,"Ġrelaxed":11910,"Ġbogdanich":11911,"Ġdrowned":11912,"Ġglycer":11913,"Ġsurvey":11914,"Ġinterpreter":11915,"Ġteachers":11916,"Ġinsurrection":11917,"Ġextravasated":11918,"Ġseventeenth":11919,"Ġhudson":11920,"Ġanteced":11921,"Ġenumerate":11922,"Ġactinomycosis":11923,"Ġwitty":11924,"Ġensure":11925,"Ġperceive":11926,"Ġordinance":11927,"Ġshrieked":11928,"Ġpiteous":11929,"Ġpuzzled":11930,"Ġpamphlets":11931,"Ġdeemed":11932,"Ġhumiliating":11933,"Ġcharacteristics":11934,"Ġbayonets":11935,"federalists":11936,"pentine":11937,"Ġgospel":11938,"Ġdissemination":11939,"Ġgrabern":11940,"Ġconspiracy":11941,"Ġendothelium":11942,"Ġhawaii":11943,"Ġecho":11944,"Ġgaiety":11945,"stein":11946,"periosteal":11947,"Ġoklahoma":11948,"Ġsuperintendent":11949,"Ġincoherent":11950,"Ġorganizations":11951,"Ġtreachery":11952,"Ġmultipl":11953,"Ġventilator":11954,"green":11955,"Ġancest":11956,"Ġunwilling":11957,"Ġengrossed":11958,"Ġirrepressible":11959,"Ġfancied":11960,"Ġhereditary":11961,"Ġconcessions":11962,"Ġdevelops":11963,"Ġexostoses":11964,"Ġsaphena":11965,"Ġunnoticed":11966,"Ġdisadvant":11967,"Ġperonskaya":11968,"Ġdemarcation":11969,"39":11970,"aver":11971,"apped":11972,"cra":11973,"cking":11974,"dam":11975,"eff":11976,"fol":11977,"gings":11978,"having":11979,"hips":11980,"houses":11981,"half":11982,"mac":11983,"made":11984,"mastoid":11985,"none":11986,"name":11987,"ogel":11988,"pes":11989,"pur":11990,"rance":11991,"rick":11992,"rising":11993,"spr":11994,"sighted":11995,"town":11996,"tail":11997,"uis":11998,"vada":11999,"wen":12000,"wall":12001,"wide":12002,"yet":12003,"zled":12004,"Ġich":12005,"Ġocean":12006,"Ġsession":12007,"Ġbolk":12008,"itinov":12009,"Ġpanting":12010,"Ġpatell":12011,"Ġmb":12012,"Ġmim":12013,"Ġmumm":12014,"Ġdad":12015,"Ġtools":12016,"anat":12017,"assured":12018,"Ġling":12019,"Ġlag":12020,"Ġlint":12021,"Ġlanger":12022,"Ġlacked":12023,"Ġlakes":12024,"Ġecc":12025,"lemen":12026,"Ġgast":12027,"Ġgel":12028,"Ġgait":12029,"Ġgulf":12030,"Ġrecl":12031,"roll":12032,"stoy":12033,"utable":12034,"ider":12035,"Ġuv":12036,"urate":12037,"urbed":12038,"Ġaspir":12039,"Ġstones":12040,"Ġiogel":12041,"Ġyawn":12042,"Ġyakov":12043,"Ġanast":12044,"Ġray":12045,"Ġrip":12046,"Ġront":12047,"Ġrigor":12048,"Ġhaul":12049,"amiliar":12050,"rescent":12051,"usage":12052,"Ġvision":12053,"Ġshrugg":12054,"illes":12055,"think":12056,"Ġsailing":12057,"apesh":12058,"Ġchalk":12059,"estion":12060,"Ġprost":12061,"isturbed":12062,"ige":12063,"Ġwhoever":12064,"Ġjab":12065,"Ġspell":12066,"ustice":12067,"Ġroast":12068,"Ġintol":12069,"Ġintend":12070,"operative":12071,"Ġunits":12072,"Ġunanim":12073,"Ġunworthy":12074,"Ġmanly":12075,"Ġamen":12076,"unculated":12077,"Ġoutset":12078,"Ġoutfl":12079,"Ġoutput":12080,"Ġenr":12081,"Ġplains":12082,"active":12083,"ibilities":12084,"eling":12085,"acking":12086,"Ġclark":12087,"Ġpierce":12088,"Ġtraced":12089,"Ġsmeared":12090,"Ġresort":12091,"Ġresounded":12092,"Ġcounties":12093,"Ġsomehow":12094,"Ġemail":12095,"Ġrepud":12096,"ubey":12097,"Ġblamed":12098,"Ġbladder":12099,"Ġinducing":12100,"rewell":12101,"Ġoverhe":12102,"Ġoverlooked":12103,"Ġwills":12104,"arers":12105,"Ġpea":12106,"Ġperception":12107,"Ġinfring":12108,"Ġglowing":12109,"Ġarmfe":12110,"Ġcompass":12111,"Ġcomprehensible":12112,"Ġcomprehend":12113,"Ġpreob":12114,"Ġprecise":12115,"Ġbeforehand":12116,"Ġpresently":12117,"Ġpresume":12118,"erves":12119,"Ġscor":12120,"Ġslim":12121,"Ġmenacing":12122,"Ġsyll":12123,"nah":12124,"athom":12125,"jected":12126,"nings":12127,"Ġspeeches":12128,"Ġmetivier":12129,"Ġ413":12130,"ĠĠĠĠĠĠĠĠĠĠĠĠĠĠĠĠĠĠ":12131,"Ġconfession":12132,"Ġconfisc":12133,"Ġrelent":12134,"Ġrelatively":12135,"Ġdiffused":12136,"Ġhappier":12137,"Ġassented":12138,"Ġcorrected":12139,"Ġreader":12140,"Ġreadable":12141,"Ġrefined":12142,"Ġreferences":12143,"Ġdefine":12144,"Ġinvented":12145,"Ġnaples":12146,"Ġbrodie":12147,"Ġlastly":12148,"Ġmax":12149,"Ġexpressly":12150,"Ġearn":12151,"Ġhorner":12152,"Ġkeys":12153,"Ġpurified":12154,"Ġminority":12155,"Ġcaul":12156,"Ġcavern":12157,"Ġinsol":12158,"Ġcontinuously":12159,"Ġmoran":12160,"Ġmomentary":12161,"Ġconstituting":12162,"Ġsink":12163,"Ġholiday":12164,"Ġadmired":12165,"Ġcertainty":12166,"Ġcracked":12167,"Ġboone":12168,"hovitinov":12169,"Ġbehav":12170,"Ġimportation":12171,"Ġestimate":12172,"Ġlabored":12173,"Ġswing":12174,"Ġswamp":12175,"Ġswallow":12176,"Ġcentered":12177,"Ġlistless":12178,"Ġcurled":12179,"Ġtransp":12180,"Ġprophe":12181,"uctions":12182,"Ġworldly":12183,"Ġdiscour":12184,"Ġdiscretion":12185,"Ġbreckinridge":12186,"Ġprotrud":12187,"ecided":12188,"Ġtraitors":12189,"Ġdifferential":12190,"Ġinjurious":12191,"Ġinjustice":12192,"Ġdevoid":12193,"Ġdrawer":12194,"Ġdirecting":12195,"Ġdispose":12196,"Ġdisputed":12197,"Ġepis":12198,"Ġlinks":12199,"Ġ62":12200,"Ġcoldness":12201,"Ġappealed":12202,"Ġpleasures":12203,"Ġstrongest":12204,"Ġsystems":12205,"Ġassociate":12206,"Ġbaron":12207,"Ġgreed":12208,"Ġelectron":12209,"Ġstartling":12210,"Ġideals":12211,"Ġ166":12212,"howden":12213,"Ġpayments":12214,"Ġsque":12215,"Ġconversing":12216,"Ġsalary":12217,"Ġsalts":12218,"Ġsalvation":12219,"Ġobservations":12220,"Ġsterno":12221,"Ġsterilis":12222,"Ġfortified":12223,"Ġ96":12224,"Ġ97":12225,"Ġstrips":12226,"Ġaffectation":12227,"Ġ75":12228,"Ġ104":12229,"Ġsensible":12230,"Ġ*[":12231,"Ġgunpowder":12232,"Ġlowell":12233,"Ġloans":12234,"Ġceases":12235,"Ġdoubtless":12236,"Ġmilka":12237,"Ġ87":12238,"Ġundressing":12239,"Ġundisturbed":12240,"Ġundecided":12241,"Ġ1869":12242,"Ġcancerous":12243,"Ġ150":12244,"Ġ152":12245,"beard":12246,"Ġobjected":12247,"Ġlibrary":12248,"Ġpathogenic":12249,"shend":12250,"Ġbounds":12251,"Ġpalmar":12252,"Ġ132":12253,"Ġ134":12254,"Ġurgent":12255,"Ġarresting":12256,"Ġdissip":12257,"Ġrisks":12258,"sett":12259,"Ġintroducing":12260,"does":12261,"hevo":12262,"Ġimproving":12263,"Ġ120":12264,"Ġfloating":12265,"Ġmiserable":12266,"domo":12267,"Ġbursitis":12268,"Ġ1916":12269,"Ġ1919":12270,"Ġrestraint":12271,"Ġrestriction":12272,"Ġdiscussing":12273,"Ġheroism":12274,"Ġwarmth":12275,"engers":12276,"Ġbondmen":12277,"Ġplatov":12278,"Ġ208":12279,"Ġfrock":12280,"Ġscratch":12281,"Ġ307":12282,"Ġgrip":12283,"Ġastounding":12284,"Ġreforms":12285,"ĠĠĠĠĠĠĠĠĠĠĠĠĠĠĠĠĠĠĠĠĠĠĠĠĠĠĠĠ":12286,"ĠĠĠĠĠĠĠĠĠĠĠĠĠĠĠĠĠĠĠĠĠĠĠĠĠĠĠĠĠĠ":12287,"hensk":12288,"Ġsobbed":12289,"Ġconflicts":12290,"Ġcleanliness":12291,"Ġsubstant":12292,"Ġ462":12293,"Ġ1775":12294,"nesday":12295,"Ġpursue":12296,"Ġdeceive":12297,"Ġ1872":12298,"Ġmagnitude":12299,"Ġunfamiliar":12300,"Ġxxi":12301,"Ġworthless":12302,"Ġ405":12303,"Ġcontracts":12304,"papa":12305,"Ġpositively":12306,"Ġshafts":12307,"Ġ393":12308,"Ġsickness":12309,"Ġtoxin":12310,"Ġaccidents":12311,"Ġcheerfully":12312,"Ġgateway":12313,"Ġscreams":12314,"fourths":12315,"Ġambition":12316,"Ġvacancies":12317,"Ġobstruction":12318,"Ġobstinate":12319,"Ġmaturity":12320,"Ġwhistled":12321,"Ġprotecting":12322,"Ġfashionable":12323,"Ġdedicated":12324,"Ġexperiments":12325,"Ġrejoined":12326,"Ġhunters":12327,"Ġstimulating":12328,"ochubey":12329,"Ġwednesday":12330,"Ġsurgeons":12331,"Ġaccumulated":12332,"Ġcrimson":12333,"Ġproposals":12334,"Ġcherished":12335,"Ġhartford":12336,"Ġconsulting":12337,"Ġbreathless":12338,"Ġpuncture":12339,"Ġadmirable":12340,"Ġnursing":12341,"Ġtraveled":12342,"Ġtribun":12343,"Ġsearched":12344,"Ġdeeds":12345,"Ġphenomenon":12346,"Ġpioneer":12347,"Ġcauter":12348,"Ġcautery":12349,"Ġberlin":12350,"Ġcontributions":12351,"Ġingrat":12352,"Ġlacking":12353,"Ġanalog":12354,"Ġmagic":12355,"Ġrhodes":12356,"Ġcarpets":12357,"Ġphilosoph":12358,"Ġcowboy":12359,"Ġmicros":12360,"Ġgratefully":12361,"Ġpoult":12362,"Ġretirement":12363,"Ġwarranties":12364,"Ġbetrayed":12365,"Ġnourishment":12366,"Ġcoffin":12367,"Ġgloomily":12368,"Ġkuzmich":12369,"Ġbundle":12370,"Ġrickety":12371,"Ġcoinage":12372,"Ġcounteract":12373,"Ġhemp":12374,"gentlemen":12375,"Ġclutched":12376,"Ġfibrositis":12377,"Ġincessant":12378,"Ġpilgrim":12379,"Ġaristocracy":12380,"Ġfluctuating":12381,"Ġchampion":12382,"Ġclimbed":12383,"Ġsilly":12384,"Ġamusement":12385,"subcutaneous":12386,"Ġtortuous":12387,"Ġcultivation":12388,"Ġpneumonia":12389,"Ġdeafening":12390,"Ġklapp":12391,"Ġmelted":12392,"Ġlawyers":12393,"Ġdiscontent":12394,"Ġmoaning":12395,"Ġpigmentation":12396,"Ġmetastases":12397,"Ġperspiration":12398,"Ġobscure":12399,"Ġgonorrhoea":12400,"strept":12401,"umberland":12402,"Ġapproximately":12403,"Ġnetwork":12404,"Ġstaircase":12405,"Ġstaggered":12406,"oplasm":12407,"aunted":12408,"Ġindirectly":12409,"Ġflattering":12410,"Ġinsensitive":12411,"Ġfleeing":12412,"Ġtipsy":12413,"Ġcorpuscles":12414,"Ġlonely":12415,"Ġgrieved":12416,"Ġdancer":12417,"ropathies":12418,"Ġexalted":12419,"Ġrepulsed":12420,"Ġintercourse":12421,"Ġtroyka":12422,"Ġdismissed":12423,"Ġfascinating":12424,"Ġjugular":12425,"Ġsyncope":12426,"Ġburdens":12427,"Ġsacrificed":12428,"between":12429,"Ġmixture":12430,"Ġrattled":12431,"Ġpraised":12432,"Ġdiaphysis":12433,"Ġobserver":12434,"injuries":12435,"Ġcaustic":12436,"Ġencapsulated":12437,"Ġinfrequently":12438,"Ġspecimen":12439,"Ġwyoming":12440,"Ġliquefaction":12441,"Ġdisconcerted":12442,"Ġbuxhowden":12443,"Ġfantastic":12444,"Ġdisdain":12445,"razhensk":12446,"Ġguidance":12447,"Ġcathedral":12448,"Ġbolkhovitinov":12449,"Ġlangeron":12450,"Ġgelat":12451,"Ġanastom":12452,"Ġrontgen":12453,"Ġshrugging":12454,"apeshot":12455,"Ġpreobrazhensk":12456,"72":12457,"914":12458,"aur":12459,"bable":12460,"bted":12461,"backs":12462,"canc":12463,"cran":12464,"dise":12465,"fitting":12466,"gly":12467,"grown":12468,"hon":12469,"iat":12470,"lon":12471,"life":12472,"mund":12473,"nected":12474,"power":12475,"rise":12476,"radi":12477,"sur":12478,"spe":12479,"tes":12480,"uent":12481,"western":12482,"yan":12483,"zur":12484,"Ġtu":12485,"Ġtout":12486,"Ġtucked":12487,"healing":12488,"Ġaureus":12489,"incy":12490,"infl":12491,"Ġoph":12492,"Ġorel":12493,"Ġsna":12494,"Ġwaged":12495,"Ġwander":12496,"Ġbour":12497,"Ġbiv":12498,"Ġbish":12499,"Ġbolkons":12500,"Ġbomb":12501,"Ġbiograph":12502,"Ġcrew":12503,"Ġcession":12504,"Ġcateg":12505,"Ġcumberland":12506,"Ġhue":12507,"Ġhook":12508,"Ġhints":12509,"ito":12510,"itious":12511,"Ġfol":12512,"Ġfus":12513,"Ġfost":12514,"Ġpell":12515,"Ġpine":12516,"Ġpenc":12517,"Ġpips":12518,"Ġmorm":12519,"Ġmold":12520,"Ġmask":12521,"Ġinherent":12522,"Ġdred":12523,"Ġdaz":12524,"Ġdwar":12525,"orters":12526,"another":12527,"Ġthud":12528,"Ġthief":12529,"Ġly":12530,"Ġlens":12531,"Ġlump":12532,"Ġlucky":12533,"Ġnort":12534,"Ġniz":12535,"Ġnasty":12536,"Ġheals":12537,"omata":12538,"Ġeth":12539,"lete":12540,"Ġgh":12541,"Ġgib":12542,"Ġbeings":12543,"Ġbeeches":12544,"alach":12545,"entured":12546,"Ġrevers":12547,"Ġrevel":12548,"rost":12549,"stop":12550,"immed":12551,"idal":12552,"otes":12553,"seven":12554,"owered":12555,"urable":12556,"urday":12557,"Ġstab":12558,"vering":12559,"Ġforge":12560,"Ġanton":12561,"Ġrome":12562,"Ġrusse":12563,"Ġrifle":12564,"ereal":12565,"erers":12566,"Ġframed":12567,"olis":12568,"Ġorche":12569,"uled":12570,"ulum":12571,"Ġselection":12572,"Ġdeity":12573,"Ġdepl":12574,"Ġsuited":12575,"Ġvolkonski":12576,"Ġshove":12577,"Ġshcher":12578,"Ġshivering":12579,"Ġshippers":12580,"Ġkochubey":12581,"acre":12582,"acon":12583,"acit":12584,"Ġexter":12585,"Ġsodden":12586,"ersper":12587,"ositis":12588,"illoma":12589,"Ġnevada":12590,"agic":12591,"Ġprone":12592,"Ġprair":12593,"Ġchatter":12594,"Ġallud":12595,"antry":12596,"Ġalice":12597,"igerent":12598,"Ġarab":12599,"Ġju":12600,"Ġjam":12601,"Ġjob":12602,"Ġjokes":12603,"Ġspared":12604,"Ġspots":12605,"Ġspending":12606,"Ġroots":12607,"Ġweigh":12608,"Ġmend":12609,"Ġuprising":12610,"Ġintending":12611,"opath":12612,"Ġleash":12613,"Ġleaf":12614,"Ġabr":12615,"Ġabashed":12616,"Ġfeed":12617,"Ġunrest":12618,"Ġunlim":12619,"Ġuncovered":12620,"Ġunimportant":12621,"resses":12622,"ouring":12623,"Ġdisordered":12624,"ivable":12625,"raved":12626,"raising":12627,"raemia":12628,"Ġadroit":12629,"ortions":12630,"geal":12631,"Ġmytish":12632,"ocity":12633,"Ġoutlet":12634,"Ġoutright":12635,"Ġenh":12636,"Ġenrolled":12637,"Ġenforced":12638,"Ġplot":12639,"Ġplow":12640,"Ġplight":12641,"Ġplumes":12642,"kel":12643,"Ġagg":12644,"!\"--":12645,"Ġquartered":12646,"Ġquincy":12647,"oderm":12648,"Ġclad":12649,"Ġappalach":12650,"Ġconting":12651,"Ġcontusion":12652,"endous":12653,"assy":12654,"urned":12655,"Ġresented":12656,"Ġcancers":12657,"Ġeminent":12658,"Ġrepay":12659,"Ġbrunn":12660,"Ġ(\"":12661,"aret":12662,"Ġpeering":12663,"Ġnatives":12664,"Ġperil":12665,"Ġgrapeshot":12666,"into":12667,"Ġcomposition":12668,"Ġimply":12669,"Ġprecisely":12670,"Ġattraction":12671,"Ġconspic":12672,"Ġflush":12673,"Ġbeggar":12674,"Ġpresum":12675,"Ġscab":12676,"Ġscorn":12677,"Ġfrenchwoman":12678,"Ġoldenburg":12679,"Ġslop":12680,"Ġsurpl":12681,"weather":12682,"Ġ212":12683,"whom":12684,"Ġdesk":12685,"Ġ1813":12686,"Ġpassengers":12687,"sores":12688,"Ġ31":12689,"...?\"":12690,"Ġmetrop":12691,"Ġ41":12692,"Ġ412":12693,"Ġskirm":12694,"Ġdistracted":12695,"Ġconfine":12696,"Ġconfessed":12697,"Ġconferences":12698,"Ġconfronted":12699,"hesis":12700,"Ġasserted":12701,"Ġcharters":12702,"Ġconstrict":12703,"Ġcapit":12704,"Ġstreamed":12705,"ritic":12706,"ontoma":12707,"ceptibly":12708,"Ġyoungest":12709,"Ġinstruction":12710,"Ġ500":12711,"Ġforesee":12712,"Ġsaturday":12713,"Ġdonate":12714,"Ġhorrid":12715,"Ġhorrors":12716,"Ġdepressing":12717,"Ġdrained":12718,"Ġbelova":12719,"Ġeliz":12720,"Ġsmallest":12721,"lihood":12722,"Ġwanting":12723,"Ġsoup":12724,"Ġpaint":12725,"._,":12726,"Ġvaried":12727,"Ġinsertion":12728,"Ġparce":12729,"ilians":12730,"Ġcrum":12731,"Ġcrash":12732,"Ġboat":12733,"Ġcaseous":12734,"Ġdecades":12735,"Ġtrop":12736,"Ġdetained":12737,"Ġesteem":12738,"Ġswear":12739,"Ġcenturies":12740,"Ġpromoting":12741,"Ġhalting":12742,"Ġhumble":12743,"Ġhumiliation":12744,"Ġexploration":12745,"Ġclearness":12746,"Ġhorsemen":12747,"Ġedmund":12748,"Ġdiscord":12749,"Ġsteep":12750,"Ġruins":12751,"Ġcollision":12752,"Ġcollapsed":12753,"Ġdividing":12754,"Ġtermination":12755,"Ġtrails":12756,"Ġmassive":12757,"Ġinjunction":12758,"Ġsingly":12759,"Ġorganic":12760,"Ġdevote":12761,"formed":12762,"forming":12763,"Ġmothers":12764,"Ġhearty":12765,"Ġbeds":12766,"Ġdispers":12767,"Ġdisputing":12768,"Ġdoubled":12769,"Ġlink":12770,"Ġmidday":12771,"Ġplanks":12772,"Ġfuller":12773,"exc":12774,"Ġtownshend":12775,"Ġcivilians":12776,"Ġsystematic":12777,"Ġsnake":12778,"Ġbarrel":12779,"Ġhydra":12780,"Ġposterity":12781,"Ġoccupying":12782,"Ġjewel":12783,"Ġvisiting":12784,"Ġdeveloping":12785,"rically":12786,"Ġrequires":12787,"Ġsacrif":12788,"Ġsacculated":12789,"Ġznaim":12790,"Ġassuming":12791,"Ġvert":12792,"Ġsuperfl":12793,"Ġscarf":12794,"Ġhusbands":12795,"Ġantip":12796,"Ġforeigner":12797,"Ġembar":12798,"Ġprobability":12799,"Ġweakened":12800,"Ġapology":12801,"Ġ85":12802,"Ġfarewell":12803,"Ġcream":12804,"Ġfreshly":12805,"Ġundressed":12806,"Ġharb":12807,"Ġ156":12808,"Ġaccepting":12809,"Ġadminister":12810,"Ġindebted":12811,"Ġobjection":12812,"Ġexpectations":12813,"Ġsecretion":12814,"Ġbitch":12815,"Ġcapitalists":12816,"Ġadministrative":12817,"Ġsweep":12818,"Ġsweating":12819,"Ġoriginally":12820,"Ġfuneral":12821,"sterical":12822,"Ġdemanding":12823,"Ġcryst":12824,"Ġhastening":12825,"Ġremainder":12826,"Ġcounc":12827,"Ġprett":12828,"Ġgenerosity":12829,"color":12830,"Ġblend":12831,"Ġnodding":12832,"Ġirritant":12833,"Ġirritating":12834,"Ġsupra":12835,"Ġimproper":12836,"Ġlodged":12837,"blasts":12838,"Ġroyalty":12839,"Ġpurposely":12840,"Ġlords":12841,"Ġdmitri":12842,"Ġempowered":12843,"Ġ140":12844,"Ġimplicate":12845,"Ġgrandeur":12846,"Ġdetailed":12847,"Ġpeculiarities":12848,"Ġfarthest":12849,"Ġexerted":12850,"Ġwhispers":12851,"Ġcannonade":12852,"Ġcomforting":12853,"Ġcomfortably":12854,"Ġresemblance":12855,"Ġwithdrawing":12856,"Ġconsistent":12857,"Ġcritics":12858,"Ġ434":12859,"Ġdanil":12860,"Ġcoughed":12861,"Ġ361":12862,"Ġgreenback":12863,"Ġdeceased":12864,"Ġiodide":12865,"Ġ428":12866,"Ġsolemnity":12867,"glass":12868,"Ġfills":12869,"arrh":12870,"Ġshooting":12871,"Ġspringing":12872,"Ġenormously":12873,"Ġthrob":12874,"Ġconducting":12875,"Ġmechanism":12876,"Ġmechanically":12877,"Ġsuggesting":12878,"Ġdilig":12879,"Ġglanders":12880,"Ġ1904":12881,"Ġ1907":12882,"Ġattendant":12883,"Ġ294":12884,"maid":12885,"Ġconfirmation":12886,"Ġcornwall":12887,"Ġundergoing":12888,"Ġobstin":12889,"Ġobstacle":12890,"Ġgreetings":12891,"Ġmerryweather":12892,"Ġsamo":12893,"Ġnoncommission":12894,"Ġivory":12895,"Ġeaten":12896,"Ġsprung":12897,"Ġruling":12898,"precisely":12899,"Ġdeduced":12900,"Ġdeduction":12901,"Ġidiot":12902,"Ġworkingmen":12903,"Ġ1830":12904,"Ġ1832":12905,"Ġhayes":12906,"Ġpulsating":12907,"Ġlogic":12908,"Ġrejoicing":12909,"Ġreckless":12910,"Ġnegotiate":12911,"Ġsuperiority":12912,"Ġfacilit":12913,"Ġdespairing":12914,"Ġricher":12915,"Ġsepticaemia":12916,"Ġresection":12917,"Ġapron":12918,"Ġovertake":12919,"Ġperplexed":12920,"Ġemboli":12921,"republic":12922,"Ġspeedily":12923,"Ġweariness":12924,"Ġperforated":12925,"Ġperforating":12926,"Ġchallenged":12927,"Ġidentical":12928,"Ġoxford":12929,"Ġappreciate":12930,"Ġdeposited":12931,"Ġcautiously":12932,"Ġlimitations":12933,"Ġcontributed":12934,"Ġ1763":12935,"Ġprincipally":12936,"Ġbreadth":12937,"Ġpinch":12938,"calc":12939,"Ġunusually":12940,"Ġdisposal":12941,"Ġgleam":12942,"Ġfreemasons":12943,"princess":12944,"Ġcolorado":12945,"Ġrecovering":12946,"Ġtrifling":12947,"Ġschemes":12948,"Ġbetraying":12949,"psho":12950,"Ġneighborhood":12951,"Ġrigidity":12952,"Ġnourished":12953,"Ġrheumatic":12954,"everything":12955,"Ġshyly":12956,"Ġpicket":12957,"nesty":12958,"Ġmartial":12959,"Ġweapons":12960,"Ġdisappointment":12961,"Ġfierce":12962,"Ġpuffing":12963,"Ġrefrained":12964,"criptions":12965,"Ġcoincidence":12966,"Ġtradesmen":12967,"Ġauersper":12968,"Ġburen":12969,"Ġincomes":12970,"Ġpuritan":12971,"Ġhypoderm":12972,"Ġcasual":12973,"Ġpedunculated":12974,"Ġdoran":12975,"Ġdorog":12976,"uclear":12977,"Ġpolitely":12978,"Ġengineer":12979,"Ġproliferation":12980,"Ġpopulists":12981,"Ġarsenic":12982,"Ġdisintegration":12983,"Ġbuffalo":12984,"street":12985,"Ġdissection":12986,"Ġgrimace":12987,"Ġecstatic":12988,"Ġbustle":12989,"Ġimprisoned":12990,"Ġexploit":12991,"Ġstaggering":12992,"Ġrecruits":12993,"Ġpremises":12994,"Ġexpanded":12995,"Ġapologize":12996,"Ġtoleration":12997,"Ġtossed":12998,"Ġcongreg":12999,"Ġdiscoloration":13000,"Ġsarcastic":13001,"Ġeloquent":13002,"Ġsentinel":13003,"Ġpotatoes":13004,"Ġhydrogen":13005,"Ġunhealthy":13006,"Ġforesight":13007,"Ġscrutin":13008,"Ġkaragina":13009,"+--------------+--------------":13010,"build":13011,"Ġdenser":13012,"Ġkerchief":13013,"Ġdisinfected":13014,"Ġbradstreet":13015,"Ġlascar":13016,"Ġcomputer":13017,"Ġdiabetes":13018,"Ġbargain":13019,"Ġsummons":13020,"Ġsubmarine":13021,"Ġresentment":13022,"Ġscenes":13023,"Ġphagocytes":13024,"Ġexhaustion":13025,"Ġrhine":13026,"Ġholland":13027,"Ġmolasses":13028,"Ġindecision":13029,"Ġtechnical":13030,"Ġmagnificent":13031,"Ġtsarevich":13032,"Ġpectoral":13033,"Ġsokol":13034,"Ġchisel":13035,"epitheli":13036,"Ġscurvy":13037,"Ġmalignancy":13038,"Ġturkish":13039,"Ġryder":13040,"Ġunbuttoned":13041,"Ġappetite":13042,"Ġdevitalised":13043,"Ġantecedent":13044,"macdonald":13045,"Ġpatella":13046,"Ġarmfeldt":13047,"radiogram":13048,"Ġophthalm":13049,"Ġbivou":13050,"Ġorchestra":13051,"Ġmytishchi":13052,"Ġconspicuous":13053,"Ġsacrifices":13054,"Ġnoncommissioned":13055,"Ġauersperg":13056,"'.":13057,"87":13058,"90":13059,";--":13060,"aits":13061,"bin":13062,"bacter":13063,"brown":13064,"bott":13065,"cf":13066,"call":13067,"dis":13068,"ele":13069,"fall":13070,"fine":13071,"fire":13072,"facing":13073,"fashion":13074,"gently":13075,"han":13076,"hab":13077,"hard":13078,"ike":13079,"kins":13080,"lat":13081,"lou":13082,"loy":13083,"lower":13084,"lupus":13085,"ms":13086,"mid":13087,"nin":13088,"nosed":13089,"pain":13090,"pated":13091,"rament":13092,"sire":13093,"spir":13094,"sburgh":13095,"tom":13096,"tum":13097,"table":13098,"voc":13099,"Ġtay":13100,"Ġtacit":13101,"heres":13102,"Ġawe":13103,"Ġavert":13104,"internal":13105,"inisc":13106,"Ġole":13107,"Ġoval":13108,"Ġsain":13109,"Ġsine":13110,"rev":13111,"Ġwre":13112,"Ġwens":13113,"Ġwink":13114,"erine":13115,"onious":13116,"Ġbid":13117,"Ġbount":13118,"Ġbible":13119,"Ġbuz":13120,"Ġbored":13121,"Ġbitten":13122,"isn":13123,"isan":13124,"Ġcel":13125,"Ġcents":13126,"Ġhan":13127,"itives":13128,"enn":13129,"Ġfest":13130,"Ġfab":13131,"Ġfete":13132,"Ġpu":13133,"Ġpov":13134,"Ġmast":13135,"Ġmoore":13136,"ingo":13137,"ington":13138,"ingitis":13139,"Ġinward":13140,"Ġdrying":13141,"Ġdagger":13142,"Ġtoken":13143,"arf":13144,"anter":13145,"ania":13146,"anks":13147,"Ġlang":13148,"Ġlorr":13149,"llen":13150,"Ġnic":13151,"Ġnormally":13152,"Ġhears":13153,"omal":13154,"icus":13155,"iony":13156,"Ġegot":13157,"Ġgift":13158,"Ġgasped":13159,"alysis":13160,"Ġrend":13161,"Ġrely":13162,"Ġrelic":13163,"Ġreverse":13164,"rooms":13165,"imary":13166,"Ġugly":13167,"ctic":13168,"Ġwasn":13169,"Ġashes":13170,"Ġstu":13171,"Ġsticking":13172,"Ġyarosl":13173,"irrit":13174,"Ġanec":13175,"Ġanarch":13176,"Ġrural":13177,"Ġconver":13178,"Ġconvert":13179,"Ġfriday":13180,"among":13181,"Ġhadn":13182,"Ġorth":13183,"herland":13184,"ilbl":13185,"ulic":13186,"ulcer":13187,"alling":13188,"Ġsect":13189,"Ġseward":13190,"usually":13191,"Ġdew":13192,"Ġdegr":13193,"Ġvon":13194,"--'":13195,"Ġshore":13196,"Ġshaken":13197,"Ġshaved":13198,"Ġshorter":13199,"Ġkam":13200,"ppers":13201,"Ġhernia":13202,"Ġexile":13203,"Ġexert":13204,"empor":13205,"agne":13206,"ifully":13207,"Ġsavan":13208,"Ġsausage":13209,"Ġchuck":13210,"Ġchaff":13211,"ummy":13212,"Ġproceeding":13213,"Ġalve":13214,"Ġalaska":13215,"Ġjac":13216,"Ġspar":13217,"Ġspons":13218,"Ġuphold":13219,"Ġintrig":13220,"opular":13221,"Ġlev":13222,"Ġ118":13223,"Ġunm":13224,"Ġunav":13225,"Ġuniver":13226,"Ġunloc":13227,"Ġunmar":13228,"ieves":13229,"Ġdoings":13230,"Ġprinces":13231,"Ġdisin":13232,"Ġdishes":13233,"Ġdisob":13234,"Ġdisfranch":13235,"Ġmans":13236,"Ġmanip":13237,"Ġadap":13238,"Ġadequ":13239,"unci":13240,"Ġcoquet":13241,"ocy":13242,"ocular":13243,"Ġoutward":13244,"Ġagency":13245,"ibule":13246,"industri":13247,"ostic":13248,"odion":13249,"Ġclasped":13250,"Ġapple":13251,"Ġcontour":13252,"Ġoffset":13253,"cii":13254,"cile":13255,"avl":13256,"Ġtrache":13257,"Ġpartisan":13258,"Ġresidence":13259,"Ġresume":13260,"Ġafresh":13261,"Ġcounten":13262,"ubo":13263,"Ġblown":13264,"Ġreminisc":13265,"Ġbriony":13266,"Ġindist":13267,"Ġindub":13268,"Ġinduction":13269,"Ġhandled":13270,"Ġpertur":13271,"Ġgrudge":13272,"Ġglute":13273,"Ġglorious":13274,"Ġfoet":13275,"udo":13276,"Ġimpe":13277,"Ġimpost":13278,"Ġthence":13279,"phlebitis":13280,"Ġflared":13281,"Ġflog":13282,"Ġwarn":13283,"iousness":13284,"Ġscatter":13285,"Ġdownhill":13286,"Ġstrang":13287,"Ġstrains":13288,"Ġslipp":13289,"Ġslammed":13290,"Ġ218":13291,"Ġaccomm":13292,"fulness":13293,"Ġregulating":13294,"whose":13295,"Ġthoughtfully":13296,"Ġmustaches":13297,"Ġstatesman":13298,"Ġdeser":13299,"Ġ1820":13300,"amped":13301,"Ġsubur":13302,"Ġsubside":13303,"soas":13304,"Ġmetat":13305,"Ġ420":13306,"Ġ411":13307,"Ġgeneralised":13308,"Ġheaded":13309,"Ġpoles":13310,"Ġsupplying":13311,"Ġdiffers":13312,"Ġassent":13313,"Ġassailed":13314,"Ġbackground":13315,"Ġstreams":13316,"Ġcallous":13317,"Ġreaders":13318,"Ġrefres":13319,"Ġreflex":13320,"Ġpersists":13321,"olding":13322,"Ġsets":13323,"Ġnapkin":13324,"Ġmazur":13325,"Ġpleura":13326,"Ġdrums":13327,"Ġbloodstained":13328,"Ġcaes":13329,"Ġsideways":13330,"Ġmorbid":13331,"Ġparas":13332,"Ġparox":13333,"Ġfinest":13334,"Ġredeem":13335,"Ġmonaster":13336,"Ġmonoton":13337,"renous":13338,"Ġrevoir":13339,"Ġnearness":13340,"Ġadmire":13341,"Ġcrou":13342,"Ġspeaks":13343,"Ġboats":13344,"Ġveiled":13345,"primary":13346,"Ġdecomp":13347,"Ġfrontal":13348,"Ġimports":13349,"Ġoppression":13350,"deev":13351,"Ġcirc":13352,"Ġhighways":13353,"ugal":13354,"Ġharding":13355,"Ġlesson":13356,"erential":13357,"Ġthirteenth":13358,"Ġopera":13359,"bridge":13360,"Ġproportions":13361,"Ġprevention":13362,"Ġlightning":13363,"Ġulm":13364,"Ġnightcap":13365,"Ġexplains":13366,"Ġmerits":13367,"Ġvisits":13368,"Ġadjour":13369,"Ġcollodion":13370,"Ġdivor":13371,"Ġdifferentiate":13372,"Ġportfol":13373,"Ġpope":13374,"ediate":13375,"Ġopenings":13376,"Ġdevils":13377,"Ġbalcon":13378,"Ġpublican":13379,"Ġlymphadenitis":13380,"Ġlinked":13381,"Ġfavors":13382,"Ġfavoured":13383,"Ġholders":13384,"Ġtrend":13385,"Ġ61":13386,"Ġdrives":13387,"aiming":13388,"Ġbelieving":13389,"Ġappeals":13390,"Ġdemocrat":13391,"Ġparticulars":13392,"Ġsniff":13393,"Ġbarred":13394,"Ġpeterson":13395,"coman":13396,"Ġsixteenth":13397,"Ġhysterical":13398,"Ġcrosses":13399,"Ġpaste":13400,"Ġpostp":13401,"Ġaccountant":13402,"Ġannette":13403,"Ġ161":13404,"Ġtrip":13405,"Ġrequiring":13406,"Ġexperiences":13407,"Ġgallant":13408,"Ġgallery":13409,"Ġstudent":13410,"Ġstudying":13411,"Ġgangrenous":13412,"Ġwatery":13413,"Ġcourtes":13414,"Ġvermont":13415,"Ġwhiskers":13416,"Ġkeeps":13417,"Ġ72":13418,"Ġ78":13419,"Ġ107":13420,"Ġsenses":13421,"Ġreporting":13422,"Ġdespise":13423,"Ġcompliment":13424,"Ġcomplication":13425,"Ġradius":13426,"Ġdimensions":13427,"Ġ84":13428,"Ġprime":13429,"Ġcreaking":13430,"Ġcreaked":13431,"Ġundes":13432,"Ġ1863":13433,"Ġfinely":13434,"Ġ159":13435,"ychia":13436,"erties":13437,"Ġliberties":13438,"Ġgranulating":13439,"Ġgladly":13440,"cyst":13441,"figs":13442,"Ġwinchester":13443,"Ġ131":13444,"Ġ133":13445,"Ġ135":13446,"Ġ138":13447,"Ġ115":13448,"Ġmutton":13449,"Ġappointments":13450,"Ġcommunicating":13451,"colonial":13452,"Ġblew":13453,"Ġirritability":13454,"Ġ126":13455,"Ġextensors":13456,"Ġironic":13457,"Ġironical":13458,"Ġbursal":13459,"Ġbelly":13460,"Ġbelligerent":13461,"Ġclassification":13462,"Ġlodges":13463,"Ġlodgings":13464,"Ġ1915":13465,"Ġrestrained":13466,"Ġcaptains":13467,"Ġdmitrich":13468,"Ġ146":13469,"Ġ149":13470,"Ġearthly":13471,"Ġjeffersonian":13472,"Ġmultip":13473,"Ġgroove":13474,"Ġsmoked":13475,"Ġworksh":13476,"Ġapartment":13477,"Ġkarl":13478,"Ġkaray":13479,"Ġ308":13480,"Ġ322":13481,"Ġgriz":13482,"apeut":13483,"ulyu":13484,"Ġcordially":13485,"Ġdreaded":13486,"ominate":13487,"Ġcomparative":13488,"Ġwolves":13489,"ĠĠĠĠĠĠĠĠĠĠĠĠĠĠĠĠĠĠĠĠĠĠĠĠĠĠĠ":13490,"Ġratio":13491,"Ġcomforts":13492,"Ġvenereal":13493,"Ġspleen":13494,"Ġdiminishes":13495,"Ġtopic":13496,"Ġspecie":13497,"Ġ431":13498,"Ġ437":13499,"Ġ460":13500,"Ġ466":13501,"Ġ1778":13502,"Ġ369":13503,"Ġ521":13504,"Ġ524":13505,"Ġ529":13506,"Ġdominated":13507,"Ġcasting":13508,"Ġpacket":13509,"Ġmagnitski":13510,"Ġgardens":13511,"Ġvalleys":13512,"Ġunfair":13513,"Ġ259":13514,"Ġ276":13515,"Ġ508":13516,"Ġenterprises":13517,"Ġnarrowing":13518,"Ġ265":13519,"Ġsympathies":13520,"Ġ406":13521,"Ġsplendidly":13522,"Ġqualification":13523,"Ġgaunt":13524,"Ġfools":13525,"Ġsuggestive":13526,"Ġdelicacy":13527,"Ġsafely":13528,"Ġjumping":13529,"Ġ1901":13530,"Ġtibial":13531,"Ġfalsehood":13532,"Ġaccessible":13533,"Ġ1783":13534,"Ġexplanations":13535,"Ġstupidity":13536,"Ġmatrix":13537,"Ġmelanotic":13538,"Ġsmoothly":13539,"Ġsubsided":13540,"Ġ344":13541,"marked":13542,"zinger":13543,"Ġ389":13544,"Ġstamped":13545,"Ġshriveled":13546,"Ġcolleges":13547,"Ġsutured":13548,"Ġsutherland":13549,"Ġcrafts":13550,"Ġstarvation":13551,"Ġnobleman":13552,"Ġflourish":13553,"Ġnegotiation":13554,"Ġhindrance":13555,"Ġluminous":13556,"Ġaffording":13557,"Ġgravely":13558,"Ġresected":13559,"Ġresearch":13560,"Ġcorrectly":13561,"Ġproofread":13562,"Ġconsultation":13563,"Ġzealous":13564,"niki":13565,"Ġdesperation":13566,"Ġdesperately":13567,"Ġswords":13568,"Ġembarrassing":13569,"Ġfasciae":13570,"Ġsleighs":13571,"Ġidentity":13572,"Ġenvoy":13573,"Ġmingling":13574,"Ġconciliation":13575,"Ġconquered":13576,"load":13577,"Ġanaly":13578,"Ġ2001":13579,"Ġ2002":13580,"Ġmissionaries":13581,"Ġmagist":13582,"Ġuneasiness":13583,"Ġjudiciary":13584,"Ġemphasis":13585,"Ġpenetrate":13586,"Ġtrifle":13587,"Ġradicals":13588,"Ġpouches":13589,"Ġunsatis":13590,"Ġdelirious":13591,"Ġinsignificance":13592,"Ġamazement":13593,"Ġharnessed":13594,"Ġgarments":13595,"Ġkidneys":13596,"Ġgraceful":13597,"Ġantiseptics":13598,"Ġsuspicious":13599,"Ġsupplement":13600,"Ġromance":13601,"Ġromantic":13602,"Ġstrategy":13603,"Ġendeavoured":13604,
[...]
